FB
03
FA
FC
2B
19
F6
FC
09
10
FD
15
04
F4
FE
16
12
F4
F3
F6
FA
F4
FC
0E
F8
E5
F5
03
12
00
04
10
06
FE
02
09
EA
07
0D
FC
F5
E4
03
13
F4
FC
F7
0F
02
FF
0F
0F
00
FF
01
FD
0E
03
00
03
15
01
00
F0
FE
1A
01
E9
FE
00
F1
FC
11
04
FC
01
FC
FB
FB
FC
05
05
F8
FC
03
F9
FB
02
05
07
07
FC
00
FF
FB
FA
01
F9
0B
01
03
09
FD
FF
EC
F9
E0
03
01
15
0D
E3
F7
ED
04
F9
01
05
E8
F0
09
16
01
FC
01
FC
1A
FF
F2
05
18
10
F3
14
01
11
FE
0B
0E
02
FA
0B
EA
FF
06
0F
04
FB
05
FA
05
05
02
FF
09
FC
00
07
06
FC
FE
02
F3
08
FE
FF
07
FA
01
FF
00
02
04
FD
00
0A
F5
F8
0A
1B
0F
E1
0F
14
1F
EA
08
14
F2
F6
01
F3
03
0E
FA
08
08
07
F8
01
06
11
F3
03
F1
34
F8
08
09
F6
EC
F8
FE
01
13
1A
06
0B
C9
F8
FE
10
EE
FE
0B
E8
08
05
0C
0D
03
EF
0F
03
FE
0D
16
FA
0A
F3
F7
08
F3
FC
FE
00
02
FA
01
08
04
E8
FE
E6
0E
F9
FF
1B
FC
DE
FC
0C
08
DC
FC
0C
F7
23
0D
03
05
09
0B
0D
F2
F5
0B
1B
09
E3
10
F6
08
F9
16
16
E0
F9
02
FF
FF
09
1C
00
0B
05
F5
04
02
FA
EF
02
04
08
EF
1A
10
F6
DD
E4
10
FF
E4
10
FD
FF
2A
10
FE
F2
F1
FB
0B
08
09
0E
FD
02
E9
03
EC
04
0D
25
13
EF
ED
FF
10
07
F2
02
10
08
0C
F9
FD
38
1D
F4
0D
0B
03
02
15
F9
00
0E
15
1E
04
FF
10
FB
11
01
0A
FC
FA
0F
0C
09
F8
FC
09
07
FC
F0
11
FB
12
F6
08
0D
E5
EB
FB
08
00
F1
04
06
FA
01
04
F8
F9
FC
F7
F8
04
07
F8
F9
03
01
FC
04
FE
05
F8
01
06
06
04
FF
04
05
08
FE
F9
FB
02
FD
00
FF
02
05
FE
FD
FF
F8
F9
F8
00
F8
03
06
FF
FC
F9
FA
FF
00
F7
F9
02
FB
05
06
02
FD
00
03
06
FA
FE
FD
06
06
F7
00
FB
FF
03
06
FC
05
FA
FD
FF
FE
FC
F8
04
01
FB
FB
FC
FA
06
00
05
FB
07
08
FE
02
FB
02
F7
FC
07
04
FA
FA
06
FC
F9
FF
F9
03
FE
01
FF
FA
FD
FF
06
FF
FB
FC
04
FB
07
FA
FF
FF
01
01
FA
FF
03
03
03
F8
FD
F7
02
FF
F9
06
FC
03
00
06
02
08
FB
FC
06
FA
00
07
FD
FF
03
01
F9
07
FD
F9
07
00
FF
00
03
FE
FA
03
F9
00
01
00
04
FA
F8
FE
F7
FA
FE
F8
FF
FB
FD
00
03
07
F9
00
F9
FE
04
00
00
04
FD
05
FA
FB
05
FD
00
FC
00
FB
07
01
04
F9
FC
FC
01
06
FC
F7
F9
02
00
FB
04
F7
FE
FA
F9
F9
05
05
00
FB
05
06
FC
05
03
FD
FC
FD
FE
02
FD
02
04
F9
FA
02
FD
FE
FE
F8
00
FB
FE
F8
FE
FA
FC
FA
FA
05
F8
FA
02
05
F9
01
FB
FA
F8
FA
FE
06
00
FB
06
06
00
F7
F9
FE
FF
02
FD
FE
01
FF
FD
00
FF
07
F7
06
05
FD
FB
00
FC
FD
05
FB
FB
05
01
F9
01
FF
FC
FA
F8
03
FE
F8
F9
FC
F7
05
02
03
00
04
FB
08
F8
FB
FE
04
02
F8
FB
FC
FD
F8
F7
07
05
00
F7
FA
08
00
05
FB
F8
F7
04
FD
05
04
00
FF
FB
02
03
F9
04
FB
02
01
FC
00
05
FB
FD
FE
00
F9
F7
F7
F8
04
05
F8
04
06
00
FD
01
00
FF
F9
01
FB
05
FB
06
F7
FE
F8
00
03
FD
FA
FB
FA
FF
00
FA
01
F6
05
FC
FA
FB
F7
F5
F5
02
F6
F9
04
00
FA
F5
FD
00
03
04
F9
FE
F5
05
FD
F8
FD
03
07
F5
FD
04
F7
FC
F8
09
FB
FC
F8
FF
03
F9
00
F5
FA
F8
F5
F9
FF
FE
F5
03
F8
00
F8
F9
00
03
FF
FA
01
F7
FD
FB
F5
FB
F5
F9
00
F5
FC
00
FD
01
FF
FB
FD
FA
04
FC
FA
FD
FE
F9
F9
07
FA
06
FB
00
05
03
01
06
F9
FA
FC
FD
FB
FB
01
FC
FD
FB
03
F7
F8
F5
F8
0C
02
FD
00
FC
03
F7
04
03
FD
03
FF
FC
FD
FB
F8
F5
FF
01
FD
02
FA
F6
02
F7
FE
00
FD
FD
02
FD
02
00
FA
02
FE
03
FF
FD
00
01
FF
F8
FB
06
FA
06
01
FA
FE
FE
02
FF
FA
FA
04
05
07
04
F8
F9
01
FF
FD
FA
FC
06
00
03
04
FA
F5
F9
08
FE
02
FA
09
04
08
02
FB
FD
07
04
FE
F8
FD
FA
FC
03
FA
FD
F8
F8
04
FA
F5
03
FE
01
01
02
08
FA
FB
F6
01
FD
FF
FB
FD
F5
00
F7
F9
F5
03
F6
01
00
FB
04
FB
02
FF
FD
FB
F8
00
02
03
F8
FA
00
06
F9
01
02
FA
FB
F7
F9
02
FD
F9
00
01
00
FC
FA
FD
FB
FE
FD
FC
FA
04
04
F7
FF
03
F6
00
0C
F9
FA
FB
01
FF
00
FE
F5
FB
F7
0C
03
00
F5
FC
02
FC
F5
FE
09
07
FE
00
FE
FF
04
F9
04
F5
FC
F7
05
00
03
FC
0A
FE
01
01
FA
F9
0C
FD
F6
05
00
02
00
FE
FB
FA
FA
02
F7
FA
FE
FF
02
FB
FF
F8
06
01
FC
04
F5
FE
02
F7
FF
FB
F7
04
F9
02
F8
F9
FA
F6
03
F6
F7
01
F6
00
02
FF
F8
04
04
F8
F9
02
01
FB
F9
FB
03
F5
F9
FB
FC
FB
F8
00
02
FB
F9
06
00
03
FC
FF
FD
FC
F1
F7
F8
FE
04
F4
FF
F9
F1
FC
F3
FC
06
FA
FD
F3
F5
F0
FE
F9
F2
F2
F3
F9
08
FC
FE
04
04
FC
01
01
FC
FC
F0
FE
F9
FE
F8
01
06
F9
FC
FB
FD
02
FF
00
F8
04
F9
F9
FC
FC
F6
00
FF
F8
02
FC
F1
F9
FA
05
F4
FD
F7
FF
FE
FE
04
FA
FB
02
FC
00
00
FF
FD
07
06
FB
FA
04
F8
FD
02
05
FD
04
FC
01
04
03
FE
F9
FA
FC
01
F7
FC
01
F4
FC
FF
07
FA
F8
FA
FA
F6
02
00
FC
FC
F7
FC
FD
F7
F9
FD
F8
F2
FC
F9
F1
F8
FC
FF
F7
F7
FA
FB
FF
F8
FB
F7
F3
FA
07
FD
F6
04
F5
F9
FC
FC
03
01
01
01
05
FF
FC
05
07
00
05
FA
FB
FB
FE
F8
FE
08
05
00
FF
FE
FF
FB
FC
FB
F7
FA
07
F1
F3
05
F5
03
01
FF
F1
F7
F7
F3
FD
02
FF
F5
F7
FC
FA
01
FB
F9
F8
FA
F5
F2
FE
FA
F4
F5
FD
00
F6
F5
F2
00
FC
F8
FD
FA
04
FB
F0
FD
F8
F9
F9
F6
F4
FF
00
FF
FF
F3
F1
FA
03
FB
F5
F5
FF
F4
FB
F9
F3
FF
FF
FD
FE
F4
F8
F9
F3
FA
00
05
FF
FC
F9
FD
04
F4
FE
FC
05
FA
FA
F7
FF
FA
06
00
03
04
F9
FC
FA
F3
F8
FD
03
FF
F6
FE
07
FB
FA
02
FA
F1
FD
05
03
F2
FF
FD
05
03
05
FF
F6
F0
05
F9
05
F5
FC
FB
FA
FD
F4
F1
FF
01
F1
F6
FB
FD
F4
02
F7
05
06
06
FA
FC
00
FC
F7
F2
FC
F7
F6
F4
01
FF
FA
FA
F5
FD
07
F8
F1
F2
07
F9
F4
04
FE
00
F9
FF
FF
FF
F3
FD
F3
F6
01
F6
FA
FD
01
F0
F3
FB
FD
F9
FF
F3
F9
F8
FD
F9
F3
FC
06
F8
F9
02
F1
FF
FD
04
FE
FD
FA
FA
F3
FE
FA
FF
06
05
FC
FB
FA
07
0D
06
03
CA
C6
0D
F0
D4
FB
01
15
F8
17
0A
FB
F4
06
EE
F5
E3
06
07
01
0D
14
1C
03
F9
59
1D
16
16
10
0A
FF
F7
1D
01
09
09
1A
0F
F8
F5
00
00
FB
16
EF
EB
F9
10
07
CA
FC
FC
FA
FD
15
FA
0A
17
02
07
EA
F4
F2
0C
FC
CC
10
F8
01
FA
04
04
F9
07
FB
05
05
FF
FA
06
02
FB
03
01
06
02
02
FB
FB
FF
FF
FC
FB
F7
F6
04
03
34
1C
08
FE
09
F0
04
FB
0D
F6
FE
06
E9
FD
0C
22
FD
E9
02
EF
05
11
E7
03
E8
E9
26
0D
FA
1D
16
01
04
F2
15
0C
FD
EA
F6
06
DA
FD
E8
08
16
FB
00
F9
F9
06
05
FD
FD
05
04
09
07
FC
02
00
0A
FE
04
04
FF
FF
09
F6
FF
FB
EC
EA
06
F7
E4
11
04
02
1B
15
0C
04
F4
08
09
03
E0
F7
FE
EF
EF
FD
0B
02
02
E8
F7
0C
E4
E8
0E
08
E4
1D
09
06
E1
FE
00
0D
FE
F8
02
D8
05
F4
08
FF
08
12
00
18
F9
CA
01
07
B9
D4
10
F8
FB
33
19
09
F5
1C
FA
FA
DE
00
02
0C
0A
00
EA
FC
11
FB
ED
01
02
15
04
1B
00
F8
0B
14
04
FC
01
03
00
02
DF
0A
E8
EA
EC
E4
12
EB
04
0B
08
15
17
05
07
01
FA
0E
0A
01
E3
FE
FF
F9
F9
F8
EF
0C
F8
E8
F7
0A
FC
EB
0A
03
03
10
1A
F3
F7
08
F8
0F
FE
F6
09
03
00
E2
05
EE
04
16
1C
F1
01
07
D6
0F
08
03
19
F6
02
24
1D
FA
FD
FF
0A
FC
03
08
0F
02
0A
FB
27
EE
EF
3F
0D
07
F8
3D
0F
0A
12
00
FA
0C
F9
01
FF
FF
01
EF
F9
07
FB
FC
E6
EF
02
F2
FC
04
0D
18
10
09
06
0C
06
07
0B
FE
F4
0F
FC
13
F0
04
E5
00
0C
FE
06
02
D7
F5
24
C0
E0
01
0A
03
03
16
0F
16
F3
06
FD
F8
09
FC
02
00
E0
14
0C
09
05
0D
F5
0E
14
02
42
14
19
20
03
04
11
DF
F0
04
11
ED
F2
00
0E
ED
00
FD
02
EE
02
06
EF
18
0B
F8
39
EF
0C
FC
05
FF
DF
03
F9
00
E6
03
05
FA
07
04
06
FD
FE
00
06
01
07
04
FD
01
FD
FB
05
FF
FE
FF
FC
00
02
FB
07
F9
F9
FB
FA
F0
FC
FE
0F
17
0F
0B
EF
2C
08
15
FE
FE
FD
FC
FD
FD
0F
FA
02
02
13
E9
03
FF
04
08
1B
F3
04
01
2A
0E
F1
15
08
0F
03
F9
01
09
F8
FD
00
F4
09
FC
F9
FD
04
04
03
00
07
01
F8
F9
07
FC
03
0B
F2
06
02
08
0A
FF
0C
FF
F9
F6
F8
F3
00
01
0C
02
FB
19
0A
1E
0C
F0
09
06
FE
FA
F7
F3
FA
F2
EA
00
F9
02
09
10
08
04
15
14
0F
FA
B8
E8
11
D0
02
F8
03
04
07
09
02
E1
04
12
CE
0A
10
12
FB
FE
E9
E4
34
EE
BC
09
39
C6
0A
00
18
14
01
EE
06
EB
FD
09
02
08
0F
FC
02
FD
FC
FD
00
F0
DB
06
0C
F7
44
F5
13
F9
06
FE
F3
03
F9
08
FC
1B
02
FC
F9
F5
0C
F5
02
06
EA
14
03
05
21
F6
0A
08
0A
08
F8
F3
F1
07
F4
01
FF
0A
F7
F8
F2
F7
DF
16
FB
0E
1B
FC
F5
37
E7
13
F9
F7
00
FA
00
F4
0B
04
33
F5
F2
FA
02
00
F7
FD
F5
FC
18
10
1D
19
05
0D
FB
1E
16
03
F4
F2
F8
FA
FC
FF
11
06
DC
06
06
34
00
EB
F7
EA
FE
03
F4
17
0D
FC
19
EF
0C
0E
07
07
07
01
F1
FC
F4
F0
0C
FA
F4
FF
01
0D
FF
03
1B
03
0A
F7
FF
01
03
FA
F2
F9
FD
09
FF
0D
05
05
FC
F8
FB
02
FA
F9
F7
04
02
FF
FD
FA
F2
FB
F6
06
F5
FC
FF
FD
05
FA
F8
FA
02
03
FC
FC
FF
07
FF
02
03
04
03
02
FE
F5
08
FB
FF
F2
F7
01
F6
07
F8
00
F9
F8
FE
01
FD
03
00
01
FB
01
02
FD
02
FC
F9
FD
FE
00
01
FD
F8
02
01
00
00
FA
06
FF
F9
FE
FF
FD
03
F9
FF
04
F9
FD
F9
02
FB
FD
FC
FD
F8
07
07
05
FE
00
06
FB
F6
F9
00
FD
07
05
05
00
FE
FE
F6
FB
04
F3
FD
FF
FC
F8
02
FB
FA
01
00
FC
02
00
F6
05
04
FB
FF
07
F8
04
F6
F7
F9
F5
FC
FF
06
FF
FF
00
0B
07
02
00
FB
FC
F9
F9
03
08
07
03
F9
03
04
FC
01
05
01
06
00
04
05
FC
05
FB
02
FC
08
FA
F9
04
FE
FF
F9
01
F9
F8
FA
00
F7
FA
FE
00
FB
02
FA
F6
00
08
F8
F7
04
03
FD
06
FA
03
F5
02
FF
F4
F9
01
01
FE
FA
F9
02
04
06
FC
FB
FF
03
08
07
FC
03
FF
FD
03
F9
06
04
02
07
02
00
FD
F2
02
F8
F4
03
FD
FD
01
FF
F3
FF
05
FB
F6
01
05
FF
02
00
F8
F8
F9
FC
F7
00
FB
FB
FF
FC
FB
F8
F6
04
04
F7
F4
01
FA
F9
FD
0B
FE
04
F4
05
FA
FF
F4
F4
FC
FC
FA
FC
07
FA
00
02
04
F3
F8
01
04
FB
03
06
03
FD
FE
FF
00
01
F9
F6
FF
01
FA
06
01
02
00
F3
FF
01
03
F2
FF
03
FC
02
04
05
FD
05
0A
04
F8
FF
F5
FC
FC
FC
F6
FA
FB
F9
09
02
03
F7
FA
FD
F0
02
03
F8
F7
FF
FF
FC
F9
F6
FF
FE
06
05
02
F7
FB
F4
06
02
04
03
F4
FB
FB
FA
02
04
FF
FA
01
05
F7
05
02
FF
03
03
F7
FE
06
F8
01
03
04
FB
FE
FD
00
01
05
FC
00
05
05
00
F9
01
03
F8
03
01
04
FB
FB
02
F7
FF
00
03
03
FC
FD
FC
F9
05
FB
FC
03
FD
FB
00
00
07
04
F9
00
FB
FB
FA
03
FE
05
00
04
FD
FE
FA
FE
06
FC
01
05
03
05
FC
01
F7
03
FE
05
FC
FA
FB
04
01
FC
03
FD
FB
00
FF
FD
FC
05
02
FF
FF
04
03
F8
05
04
FB
05
FB
FE
FE
02
05
07
03
03
FC
09
04
01
F8
FD
FE
FA
FF
F8
F8
04
05
03
06
06
FA
06
01
FD
02
01
F9
FC
FD
FD
F8
FB
F9
05
F8
06
F7
00
01
FD
06
00
FD
FC
04
FD
04
FA
02
FE
06
05
07
FA
FD
00
02
08
05
03
07
04
03
05
06
06
00
FF
05
F9
03
07
03
FF
01
06
06
FE
06
02
FE
F8
FD
F9
FE
FB
FC
02
00
F8
FF
FC
01
01
FE
FA
01
04
06
FF
00
FB
FE
FB
02
FF
FE
01
F9
01
FE
FA
04
07
FB
06
FA
04
F8
04
00
FF
03
01
FC
05
02
02
FC
FF
05
01
03
FF
00
01
01
FB
04
02
00
03
FF
F7
F8
F8
05
F7
FB
FA
00
FF
01
F7
05
F8
FA
03
FE
01
FB
FB
FD
FA
FD
05
05
03
FD
00
04
05
06
FA
07
02
F9
FB
08
01
F8
FB
FD
FE
FE
05
FE
04
F8
06
FA
FA
05
00
01
FF
01
05
FB
06
FA
FA
FA
01
F7
FF
FD
FD
F7
F9
FD
01
F8
F8
F7
FE
01
00
01
04
03
FA
FA
FF
07
02
FB
FC
04
05
FB
07
03
02
FD
03
FE
02
01
06
01
07
00
01
01
00
FC
04
01
04
03
00
F7
FB
F8
02
F7
04
FF
F7
F9
FB
F7
05
FF
00
F8
FC
02
FE
06
01
FB
02
02
00
03
04
F8
FB
F8
00
01
01
FA
FA
FE
00
02
FA
01
FF
04
FB
F8
03
FF
00
F9
F5
F4
F9
03
06
02
F3
F9
FC
00
F4
03
FB
00
F5
F5
FF
03
02
F5
F5
F5
FD
05
03
FE
00
00
07
00
FF
FB
02
FB
FF
02
07
FD
FE
F9
05
02
F5
FC
03
FA
FA
02
F4
F7
F5
FA
FB
F9
FD
F7
FB
FA
FC
02
F6
FC
02
FB
FD
FF
F5
F9
F9
F6
FD
03
F9
FE
FA
FF
02
07
FF
06
F9
00
01
08
07
02
FC
05
FC
FC
FF
02
07
FA
F9
00
FE
02
F8
FE
FE
01
F9
FA
02
F4
00
07
FE
F5
01
FB
FD
08
FF
F7
00
07
F9
00
FB
F6
FD
FB
F9
FB
02
FF
FC
F6
FC
02
FB
F3
FA
F8
FA
F7
F7
FD
F9
01
00
F8
00
00
FF
FA
05
FE
00
00
01
F9
FB
F9
04
02
FA
00
04
07
02
03
FE
04
00
08
04
FD
FB
F6
F4
F9
00
FF
FC
04
F9
F8
FC
05
FE
F8
00
F9
FC
FE
FD
FE
03
07
F9
02
FA
03
FA
F4
F9
F6
FB
FB
FD
FA
F5
01
F7
F9
FD
00
FD
FB
FB
FF
F7
F9
F6
00
FA
F5
FA
02
F7
FB
03
F9
F7
01
F9
00
F4
F7
FB
F4
FE
00
F5
FF
FD
FF
F5
F7
FB
FD
02
F4
FD
F8
01
F7
F9
03
F3
F6
FB
FC
F8
FE
FD
F8
FF
FA
FB
F3
F6
03
00
FC
07
05
00
FF
F6
F4
03
FF
00
F6
F9
03
F6
FE
05
F9
02
04
FC
FA
FE
FA
F4
FD
03
FA
01
04
FD
FF
01
FF
F9
FF
00
07
F8
F4
02
FF
FF
05
FC
FC
F6
FE
03
02
04
FF
FD
F9
01
F4
02
FD
02
F8
F5
04
05
F9
FB
FA
F7
00
FA
07
02
F9
FC
F9
FF
FA
F5
F6
FC
FA
FE
00
FF
F6
FF
FB
FC
F6
FD
FE
F9
F8
F5
00
03
03
FA
F8
FB
F6
FC
00
FA
03
00
FB
F9
FE
02
FE
FB
FF
FD
F3
01
F6
F9
FA
FB
00
F9
FA
FF
FF
01
0F
11
14
0A
E9
E1
20
FE
E1
EA
05
EB
F6
10
E1
E4
06
22
F8
14
06
0E
05
15
EE
21
27
02
F5
0A
33
0F
07
17
F6
0E
15
EB
11
15
03
15
F6
01
16
EB
07
12
F8
0D
01
01
07
F2
12
0F
FA
1C
0D
FC
15
02
08
C9
FB
00
F4
0E
14
F7
DF
09
ED
02
07
01
F9
03
FC
08
00
01
05
03
06
F8
FD
FF
FE
FC
03
FE
00
FD
FA
FB
03
07
03
00
FF
06
FE
0F
02
0E
19
0B
EC
08
08
10
FD
0D
FE
01
10
FB
F3
FB
03
F3
11
0C
08
02
05
02
07
0A
F9
0C
0D
0F
01
1D
02
33
0B
0F
01
F8
00
00
01
E4
02
FA
03
FF
FD
06
F9
FC
00
FD
03
F9
FA
00
02
0F
04
00
07
F7
01
00
03
FC
FA
FD
07
08
0A
0B
0A
08
05
04
02
0B
0A
04
04
0D
17
FA
11
F9
FA
03
DC
F3
E8
F9
0E
10
0A
16
07
00
0B
06
DE
DD
0B
0A
E1
05
F4
E1
19
02
AE
E3
1A
10
E1
12
18
08
02
10
09
D6
0C
0F
E6
D7
10
F1
DB
00
11
CD
10
10
B3
EE
19
17
12
1A
14
06
0B
06
0D
FF
14
0C
F9
15
FC
FA
1C
FD
E8
CF
09
04
DF
1E
0E
F9
FA
C6
F2
00
07
F9
01
03
FF
F9
03
FC
FC
02
0D
03
F8
05
08
FB
F9
03
00
06
EF
F2
F0
EF
02
16
01
04
F6
0D
10
06
12
05
F2
14
03
F4
E7
19
01
CD
25
06
F8
FF
D7
F0
FA
10
3B
03
F7
0F
1D
14
15
04
F3
0F
11
F6
09
F7
FE
04
FA
16
10
F6
08
02
FF
09
1D
FB
07
29
01
FF
04
F6
01
FF
0E
16
F4
28
19
F4
02
F7
F0
02
0B
FF
FD
FA
03
08
09
05
01
07
09
08
04
06
0A
02
FA
06
00
F5
08
F8
FA
07
F6
04
00
03
F6
FD
F4
01
FA
F6
02
F6
F2
FC
FA
F7
F8
F4
05
FF
F5
F0
FF
FC
F5
FF
FC
F7
FA
F6
FE
02
F5
04
F5
FB
FD
FA
FC
F9
03
01
F4
04
F7
07
00
F5
ED
FE
08
F7
03
FD
F8
01
00
F2
F3
FF
F7
F7
F0
FE
F2
FC
03
F4
FF
FB
F5
F7
F8
05
06
02
F8
07
05
FB
F9
FD
FA
01
07
02
08
05
F8
04
03
FE
01
04
FF
00
03
FD
FE
01
FD
03
00
F6
FF
03
F1
F4
06
FD
00
F5
F9
01
F1
00
FA
11
F8
00
F8
F9
FB
05
05
03
FE
F9
F7
01
05
F5
FD
F8
FD
05
F3
F3
01
FE
FC
F6
F4
F5
FA
FE
FE
F7
FE
FF
FF
06
03
FF
FA
FA
FC
FA
05
05
05
04
FB
FD
FA
00
F8
FF
F9
FD
FC
FD
FB
00
01
FE
F1
FC
07
FC
FC
F4
FD
FE
02
FD
F9
FF
F5
F2
F9
FF
FD
FA
F6
FF
F7
FF
FC
FC
F6
F3
FD
FC
FD
FE
F2
FF
01
F9
F9
06
FE
F8
FF
00
F1
F7
01
08
FA
FC
FF
00
02
00
FD
03
04
FE
F7
FC
F7
F7
FE
FF
01
F3
01
F7
FB
F6
FE
FD
F3
FE
FE
FA
00
F7
F2
F6
03
F8
FB
02
F7
01
F7
F7
F0
F6
F6
FB
FC
F7
03
F6
05
F0
FA
03
FF
05
F0
00
0D
FD
F9
F8
02
F9
02
F5
FF
F7
00
F3
FE
F7
F6
F4
F3
F3
FC
02
07
03
F9
F8
FF
00
F8
F6
F9
08
FB
F4
F8
F6
F8
F9
F1
F5
FD
F8
FD
F4
EF
04
01
01
FB
FC
FF
01
FA
FA
FC
FB
F6
F8
F5
01
F5
02
F3
FF
F3
F4
FE
FB
FE
F1
00
FA
FD
FC
F2
FC
01
FC
07
03
F8
FA
FD
FC
FC
F8
F3
F6
0B
F6
FA
FF
F4
F0
FE
01
F1
F7
06
F9
05
FD
F3
FF
02
FA
F7
FF
02
FD
F5
FF
06
F3
FF
FA
F3
00
03
FB
06
FF
FF
FD
FD
F8
F1
21
24
F2
0C
27
18
04
03
16
04
EB
FD
06
F5
FC
F0
06
05
04
FA
0B
11
08
15
ED
EA
0F
15
EE
23
02
18
F8
EA
04
FC
F4
F7
08
EE
FC
00
0D
EC
F9
FD
0B
0A
04
04
F4
23
20
0A
F7
FD
08
05
EB
00
0A
10
07
04
02
DC
15
FA
F8
FF
FA
02
F9
07
02
FA
03
00
03
05
FB
FF
08
04
01
03
FD
03
06
FF
06
FA
00
FF
FE
02
02
03
F0
FC
06
0C
F5
07
0D
03
FB
F9
05
05
FF
05
05
04
F3
0A
08
FE
0C
1B
FF
09
05
15
FD
02
FC
27
00
F9
F8
FE
29
EB
10
01
F7
F3
FE
FB
19
F9
FC
03
08
07
08
05
FB
FC
FD
FF
09
FC
FB
FD
04
02
04
FB
04
04
04
F4
F8
03
F7
FB
06
02
0F
02
13
14
04
FE
20
FA
02
04
F2
13
F6
02
05
FF
FF
F4
00
04
03
02
FE
F8
07
05
07
15
E9
F0
30
F5
09
F5
03
17
F1
FD
0A
B8
E1
01
F3
D4
05
FC
08
06
08
F8
05
1F
FF
F4
3C
18
13
FF
19
15
E7
0B
FD
EE
D8
FD
0D
12
0C
F3
11
00
FB
01
08
F1
07
13
1D
FB
00
10
07
FA
F1
F2
03
F9
F2
12
F0
F7
FD
FC
F9
06
06
11
F7
F6
07
15
0B
EF
11
03
10
00
F8
05
F9
00
F6
09
0B
FA
FF
0F
06
03
FA
F4
0E
05
F2
FF
24
10
F4
FB
07
13
FE
F3
05
F8
F3
01
05
F6
FA
F6
FC
FA
01
F6
00
07
EF
F3
02
0E
F5
05
0C
10
07
FF
EF
02
02
F8
0D
F3
F2
F8
09
07
03
FF
0B
FB
3C
F3
FB
DF
0F
F9
01
0E
F8
03
2A
1C
F6
04
02
01
F4
04
00
00
FF
04
00
09
03
F7
FD
05
19
F5
09
08
04
F4
F4
FA
02
F9
F3
01
06
F9
FF
0B
06
02
10
05
13
EB
17
EB
0A
FD
E6
05
F0
00
F7
EF
FE
04
03
1F
1E
18
01
01
07
19
11
0A
FA
EF
FA
F8
EE
DD
05
E6
0F
FC
05
FC
09
01
33
FC
02
0D
FC
0C
F0
0B
16
FC
00
04
F9
05
F9
EC
E4
07
0F
FF
0F
03
0C
EB
F4
03
04
0C
10
24
F2
08
01
04
FA
F9
06
06
00
00
FD
00
08
FA
FE
01
08
06
FC
FE
07
07
01
00
07
06
FE
FA
FD
08
05
F0
01
FD
F2
FA
0F
02
F6
F6
14
07
06
02
FC
09
F6
19
05
FE
02
0F
0D
EE
0B
F9
0B
CE
07
03
01
E1
0D
14
09
10
F6
04
0C
03
06
0A
00
08
EB
04
FA
07
FC
05
FC
F9
02
FC
00
FF
F7
08
01
FE
00
F9
01
02
F2
F5
08
09
02
02
0B
15
04
F7
EB
05
F3
FA
05
F0
E1
FA
11
02
0E
F6
03
13
01
0A
14
F6
06
FD
0B
00
F4
0A
04
FA
FE
F6
28
55
F7
0A
07
2D
FF
DE
F8
00
01
1E
30
0A
09
5E
07
05
F8
09
07
FF
09
CE
0C
0D
EA
E3
FA
F6
E4
F7
01
DF
23
FD
22
0E
F8
F3
03
08
FA
F7
18
01
F8
15
FC
01
F4
06
08
EE
02
09
05
F9
E7
FB
18
0C
05
1B
F6
11
06
08
07
FD
FF
0A
FA
F7
F1
FC
02
F5
01
06
07
08
F2
17
0B
FE
03
08
F4
00
FF
F7
FD
21
F8
F3
0F
05
E4
06
04
08
E6
F7
07
13
0B
00
F8
09
04
0C
11
F6
0B
05
0D
24
03
F3
FB
1D
02
EF
08
F6
FC
F5
F8
F9
02
F5
11
FD
0D
0C
03
0C
01
FE
10
29
FC
08
CE
F9
0E
18
F2
F9
00
FB
14
06
ED
07
06
01
0B
00
08
F2
FF
0C
00
0D
0F
FF
F4
0F
09
FC
F3
0A
02
F7
03
04
0A
0D
F4
15
0A
0E
09
03
F9
0B
09
FF
10
08
01
24
F6
F7
17
12
D5
05
1B
0B
1C
F5
1A
07
05
F8
FE
05
0A
FA
0D
EA
EA
D0
FC
DB
C7
27
03
ED
21
CA
EC
21
CC
F6
05
F8
36
07
08
18
FD
06
18
03
01
02
00
0A
01
1F
FC
FA
0F
0E
0F
14
E9
F5
F1
F4
01
01
03
08
0D
FB
07
15
01
05
02
FC
06
F9
04
FF
04
01
05
F9
FC
01
06
03
F7
06
01
01
08
FE
FD
07
04
F1
F9
FC
09
F9
0B
F7
F9
12
1D
FE
F0
FD
F2
01
02
FF
01
14
09
FE
0E
0C
24
FF
F1
E7
FA
03
11
D1
0A
FF
0E
FF
02
FA
22
00
2B
EE
FD
0F
EE
FA
FD
0E
07
00
F9
FF
03
06
01
FD
01
02
06
FA
05
00
FA
04
FB
06
07
08
FB
F7
07
F3
07
08
01
01
EF
F0
F8
1D
FC
11
F9
FE
05
F6
10
0F
FE
17
FB
12
11
F3
0B
F8
0E
01
08
F9
08
09
0D
1C
F0
07
18
F2
E3
FA
15
07
F7
18
F9
0B
02
DC
F4
0A
FB
E9
F7
05
05
11
04
0E
11
F0
0B
25
FB
D9
1F
FB
08
FA
F3
08
24
E6
ED
0A
10
0A
0A
07
F8
13
00
05
10
16
02
09
0F
12
02
12
F3
FB
F4
F1
F6
EC
0C
26
00
FD
FF
20
04
06
F8
F2
FD
08
FF
11
E9
08
0B
F4
15
FF
09
05
FD
F6
0B
F8
07
06
06
0E
05
F9
20
FB
06
11
1A
FC
07
1F
07
F4
0A
EB
F1
F3
F4
ED
E3
12
02
08
FF
16
16
F5
F3
F6
FA
E9
10
29
FA
22
13
CB
FD
08
EE
F3
F3
FE
04
09
08
13
FF
08
08
03
07
FA
09
01
AB
E9
03
17
D6
0B
02
D5
27
09
0A
1F
FB
FF
02
F3
F3
08
F7
08
06
09
FF
06
F7
17
0B
07
03
0A
F7
F4
0F
F5
FC
FE
F8
03
FB
F7
07
FD
02
13
FF
02
DA
F7
0D
F2
E8
18
E8
CC
0A
03
07
22
0D
19
13
D3
FC
04
F0
01
F5
07
0E
1C
0F
1B
0F
F5
19
E7
04
12
E2
24
06
17
08
F9
08
23
CA
FD
0B
F9
FE
FA
03
11
F6
FD
07
06
11
F3
00
07
ED
04
F8
0E
11
FA
28
08
FB
FD
04
02
09
15
16
08
FD
06
F8
00
FE
03
FF
05
05
03
F9
FD
FF
FF
04
FD
00
04
03
F9
05
02
01
FD
06
11
1A
16
06
04
F7
07
14
F7
F1
0D
07
10
F2
06
16
14
FE
EF
0B
08
FB
08
00
00
03
15
03
0A
07
32
FB
FE
12
0F
FC
21
F1
FC
E5
E3
F7
F0
08
1B
04
07
17
05
07
03
03
03
FD
02
04
FF
FD
FF
F9
0E
FA
00
0B
FE
FA
F9
00
0D
FF
0C
06
FC
0B
FE
0E
0B
FF
04
12
FB
00
0C
06
FC
1D
00
FC
EB
F3
F7
FC
0D
06
05
1C
1C
FD
03
15
FF
09
0E
03
FF
F2
CD
F2
FE
AB
03
04
23
31
EA
13
43
F0
FD
16
E1
F5
08
F2
F9
FD
F6
E9
FF
07
EA
0E
1C
F1
17
1E
08
20
12
D2
2F
05
E8
EF
15
07
0F
02
0A
09
02
06
F1
FF
E4
E5
FA
FF
19
FF
0D
2E
0D
03
18
0B
F6
0D
13
24
FB
06
FB
0B
16
FF
0E
0D
F3
EF
FF
03
FE
17
F6
F3
F2
01
FF
F6
0A
09
04
05
02
0F
0C
02
06
02
F1
F0
FA
F3
09
F9
08
27
12
03
1D
FC
05
20
F8
F9
14
0A
38
08
12
13
FC
FE
10
FE
E0
15
10
D9
1B
12
15
12
0E
04
14
EE
0D
F8
FA
09
FF
0E
11
0C
FF
02
FA
2D
22
05
17
FA
08
07
ED
0D
00
D4
EF
00
07
F4
0D
13
F7
13
14
06
03
02
08
08
F5
0B
05
F4
F4
0A
07
10
F9
FD
FE
06
FC
07
F8
07
03
03
06
0C
04
FF
02
0D
0E
BB
05
3F
DE
09
02
0C
F9
06
15
07
11
01
EE
FC
01
00
08
09
14
08
13
0A
FF
48
52
01
06
18
CF
E9
08
E5
EC
04
F5
F2
F2
1E
02
0D
FF
FF
F5
FA
F4
03
06
2B
E6
15
17
EB
FD
16
EE
0C
EF
15
09
04
16
F0
12
08
01
15
FF
FC
F9
F8
06
06
08
FC
07
00
02
04
04
06
FE
FD
02
07
FB
FC
07
06
F9
FC
07
01
15
10
19
0B
19
0F
FC
F0
FD
F7
14
DF
0B
DD
F0
1A
F9
0C
F4
15
FB
16
01
FE
03
FD
ED
0E
F8
DE
35
07
F6
1F
E9
FE
17
ED
00
00
E6
F6
FE
0C
E7
05
09
1B
0D
02
FE
02
05
F8
F8
FE
03
04
FD
09
FC
07
FA
04
FF
07
09
F7
02
07
03
00
05
17
F7
F6
13
08
EA
19
01
FB
1A
DC
F7
10
FF
F9
F9
F8
F6
FA
FF
EF
16
0A
02
07
FC
0D
17
0C
FC
09
06
0A
FA
F1
05
16
D3
08
2C
28
0C
1C
1B
FD
03
08
E7
05
0D
02
FF
07
25
FE
DB
11
2B
AD
F6
24
ED
04
14
0C
32
F8
0E
E7
10
04
F1
01
03
F9
FA
16
07
1A
F9
1D
1B
E9
E5
0A
DD
08
F6
14
FA
08
14
ED
0C
FD
09
2B
F3
05
FF
FC
0A
0F
FA
14
14
F7
17
E2
EB
10
EA
FB
F3
FC
F3
F2
11
04
18
F3
05
F5
05
F6
19
0E
18
EF
15
07
CD
0C
02
E6
1A
FB
FB
FA
02
1F
ED
FE
F1
0A
2E
FF
18
12
16
04
21
11
DD
03
FC
DC
EC
E8
03
FA
12
E1
FD
0C
06
FD
FC
12
03
03
FC
02
22
FE
03
FC
3D
1E
F1
22
22
0D
1C
11
F8
0B
08
08
FD
17
FF
09
18
16
FB
0D
F8
FA
09
17
F8
0E
09
04
07
F1
FD
0D
F0
08
F5
03
FF
F8
08
06
11
FD
01
02
FD
07
07
FF
F3
27
EF
19
20
15
06
07
DF
02
E6
DA
FD
FF
10
10
00
0D
0D
0D
0A
16
09
01
14
04
E3
FF
FF
01
20
F5
DB
16
F6
FA
F7
32
0E
F4
18
1A
0C
08
1E
08
F7
FC
07
07
F9
F5
FA
F5
F4
FE
F5
02
FF
0A
F9
F7
11
14
0F
1B
11
F8
FC
04
F9
FB
06
FF
07
02
FB
07
FD
08
02
FF
01
F8
FF
06
FF
06
FF
F9
06
FA
FF
FC
03
05
06
08
05
FC
01
04
02
FE
00
F3
F6
FB
F7
00
06
06
0E
0C
1B
F9
00
F6
0A
10
F6
07
FC
08
F5
07
F7
D1
02
FD
F4
E6
10
E4
17
06
0E
11
0D
05
F9
EA
08
FB
F9
03
07
03
FA
03
FE
06
F9
01
0D
00
02
03
FF
FC
FE
09
01
F9
FC
04
01
FA
19
08
F6
0A
07
FC
FE
FF
E4
0D
EE
EF
E6
F6
EF
11
09
0E
18
08
08
F6
07
08
10
F2
FF
FC
F3
EA
03
FF
1E
0C
FE
15
25
12
FE
03
FE
FF
33
22
09
F6
49
F4
08
00
18
0F
F8
FE
F0
02
04
12
00
1D
13
E3
04
0C
D0
25
F4
0C
14
07
09
12
13
04
F8
09
04
07
02
03
F7
FA
F3
00
E6
02
00
08
12
EC
FD
0B
18
15
02
F0
17
FE
09
11
F9
07
11
F7
01
FE
F2
FD
FC
F2
00
FC
FB
02
0C
0A
0B
08
F1
EE
F6
13
0E
F7
0A
08
07
F4
FA
F2
FC
F6
FB
E1
F9
F6
0E
0A
F5
F8
05
19
1A
07
C8
08
03
12
FA
01
01
04
F9
00
EE
20
2B
FA
E2
F4
EE
FC
E4
09
01
0B
12
0A
21
0E
05
05
17
10
0A
11
F0
01
22
22
E7
06
DF
E8
05
F4
F0
F8
04
07
0D
F6
FD
FB
0E
FB
11
03
07
0A
0F
00
FD
08
03
09
F1
EC
04
FC
F8
F6
0E
FF
0F
08
03
06
02
0D
09
0B
11
0D
C3
0C
05
B4
D6
0E
FA
BF
F9
F2
FA
0D
F3
02
17
03
FF
06
FF
01
20
33
3B
04
FD
FC
D2
FC
0D
EE
27
25
FD
16
FD
0D
FD
E4
FE
02
F7
E4
FB
00
06
0F
F7
14
FE
D3
03
09
D1
F2
0B
E7
09
04
12
FD
09
ED
EF
13
03
02
F2
F8
01
00
01
04
FA
F8
FA
00
03
FD
FB
01
F9
07
F9
08
FF
05
04
FE
FC
08
01
FA
08
05
0E
07
0F
FF
E5
EE
FE
F9
FB
0D
F1
27
FE
14
09
19
FD
EC
0C
FD
04
FA
F4
F8
17
15
13
08
FC
24
11
F9
0E
FD
FA
12
15
02
FE
05
03
F9
F3
01
FB
FF
FE
D8
08
FB
05
02
FA
04
FB
06
02
FD
FB
07
01
FF
F9
FD
03
FA
FF
F7
FF
00
0D
0D
FB
0E
1A
0D
09
F6
0A
F8
FA
0F
F2
03
0F
18
0E
F9
09
01
01
FE
09
FD
F4
F5
E6
08
10
0C
0D
0D
0D
13
0E
0F
08
FB
11
97
36
05
CF
EC
F2
0E
FA
F6
0D
13
08
0E
08
FF
FD
0E
F4
C8
06
02
AA
20
27
9D
EF
F9
0D
E4
DB
04
04
1C
F6
08
0E
07
07
09
0B
01
03
E4
00
F8
D1
F6
FE
EF
12
07
19
F6
01
E0
F7
22
F0
F8
01
0F
FC
05
17
04
0D
F9
10
08
F8
01
ED
05
0A
1D
0B
F6
0F
08
02
FC
02
FF
FA
FB
E7
08
11
FC
0F
FC
DD
01
EF
DA
20
05
F7
29
FD
18
13
00
FB
F7
0D
03
FF
FE
14
FD
05
17
0E
00
F4
E3
09
04
E4
E9
0D
01
F4
07
F5
14
05
08
01
16
EE
FA
F7
05
FB
0A
3C
07
08
49
0F
EF
23
17
F3
0B
14
04
04
FE
0D
0A
06
17
05
03
00
0D
F5
06
12
0A
05
F3
00
FF
FC
F2
F3
F9
09
14
0F
EE
17
04
08
FE
03
F7
FA
FA
EF
0C
F9
FF
FA
06
E2
EF
F2
0C
0B
ED
17
18
E0
EF
FE
E6
F9
ED
F5
08
12
FD
0A
0D
FC
F5
F2
FB
07
39
4B
20
10
23
DB
FF
02
0B
F4
F9
03
EC
03
FC
06
06
06
0E
F2
F8
02
EA
0F
FB
F3
0C
0B
F9
F4
0D
CA
F5
E0
E9
FB
0D
09
F9
1E
04
08
FB
11
04
06
06
F9
FE
FF
01
03
FA
F8
FD
F9
04
F8
05
00
FF
FD
04
07
00
FE
FC
FA
05
02
10
0C
09
26
11
FE
FF
FB
01
F9
F9
FE
0F
F8
F9
F8
FE
0E
19
07
F3
00
0A
FA
E3
F2
16
E0
E5
FB
03
05
0A
EC
11
EC
01
0A
F1
0A
07
00
0A
02
FA
05
1A
17
07
04
03
F9
FB
02
02
00
FA
06
0A
FF
F9
FB
02
03
06
F8
FF
08
06
F9
FB
01
05
ED
FE
FE
FF
F8
0F
13
05
F9
F4
0F
E9
F3
FE
03
02
02
06
06
07
F8
01
12
10
EF
07
0D
0A
EF
F2
02
13
16
0E
F3
EB
E2
F9
09
11
0F
07
03
F7
05
01
1D
02
0B
06
F7
05
2D
09
F9
0C
E5
E4
ED
0E
EC
F4
1D
FE
EC
F4
F4
F6
11
0B
FC
09
05
F3
05
08
13
08
FA
20
1F
05
FE
F6
DA
E8
F5
E4
02
11
F8
FE
08
0B
D2
04
06
FF
E1
FD
E7
03
0B
05
10
19
09
05
F5
F5
01
FD
0F
01
19
F4
06
07
06
F8
00
E3
EA
02
0B
18
04
F2
15
14
F1
0B
DD
E3
F4
FD
FC
00
0C
F3
FB
09
01
D9
01
1A
07
18
0C
FD
09
03
0B
0E
F6
07
F5
F3
0B
F2
F2
F8
FB
02
FA
F6
13
16
15
0C
02
E7
02
F3
F5
C4
18
27
E1
60
08
03
3C
01
0A
20
07
09
02
05
FC
0E
FB
07
0C
FD
F5
FC
F6
11
0A
0F
0D
12
01
01
F1
F9
03
F4
FF
FF
02
FD
FD
15
FC
FC
04
F8
0E
05
08
FB
13
12
0D
0F
16
00
0F
16
E7
11
0F
02
02
F4
FD
F8
02
03
FA
EF
ED
EC
DA
0B
04
01
FE
0D
0B
21
10
F5
18
14
01
EB
05
FE
02
04
16
06
00
05
1C
F2
0D
F1
02
0B
FF
F4
01
08
F9
FC
0E
EC
F4
07
F2
0A
09
F6
FD
02
EC
02
13
00
FC
03
FB
06
03
FE
FE
06
FA
04
FE
05
07
00
02
FE
03
01
FD
FC
FB
F9
FD
FB
F3
F9
EA
FE
03
12
FE
0A
14
00
02
0D
09
F4
F6
E8
FB
10
F5
FF
1A
08
0C
17
05
E1
F8
FF
01
FD
FC
06
FC
F5
06
F6
E3
FD
0D
F7
08
06
05
1A
EF
0C
13
11
07
FB
00
FE
05
FF
08
FF
00
F9
00
02
09
FF
FA
FB
FA
FF
01
04
F2
05
0B
0D
F5
FB
EF
FB
F6
08
03
01
14
06
0F
0D
FE
E2
01
03
EA
15
03
05
09
F9
14
0D
FF
0E
FF
FB
FC
07
09
0C
0D
ED
14
08
02
1A
14
06
20
13
21
08
36
04
04
08
0B
11
05
0B
02
F8
13
2D
1C
FC
12
0E
11
17
FF
EA
01
33
DA
0B
16
E7
03
19
EE
F3
12
02
F1
FB
FE
13
0D
05
09
13
07
F4
19
FF
FC
0B
FC
00
09
EC
00
11
F7
33
13
FA
F2
FD
F7
FA
0A
FC
0A
13
11
FF
02
F4
07
03
EF
09
FD
FD
FC
FD
03
1C
1A
19
0E
FE
F2
0E
10
0E
03
13
FC
FA
FC
01
FB
F4
09
E3
01
FD
EB
F4
01
08
3A
0D
F5
EF
ED
0B
03
0B
EA
F6
0E
29
1C
04
01
ED
FD
0C
FD
FB
FE
EB
FE
0C
01
03
12
F9
C7
0E
0E
D7
F9
FC
E1
F2
0A
03
EC
0E
08
15
15
FE
07
26
17
02
0B
05
00
00
00
F5
00
0A
03
01
06
1E
18
FD
0A
F0
0A
FA
FD
00
FF
FD
FB
08
05
0D
0C
0C
0E
15
0A
F8
DD
2C
0A
E3
1B
2C
18
F5
E9
EE
00
ED
F9
0B
03
0A
FD
01
0E
07
F7
15
29
FD
30
F5
B6
23
16
F4
2F
13
ED
30
06
F5
0F
E2
03
F3
ED
FB
FF
F6
F7
FC
0A
0C
04
F7
F7
F0
EF
0F
0E
F7
07
00
0C
F6
FF
08
FC
13
F4
FC
F9
F0
00
01
01
07
04
F9
FB
07
F9
03
03
04
01
07
00
05
FF
02
07
FA
03
FB
03
F9
03
FD
05
F8
F9
F8
FC
F7
FF
1A
03
01
EE
21
FD
1E
06
F5
06
03
06
01
0C
F8
FC
FD
0F
0B
17
FA
04
01
0A
EE
02
DF
0F
0A
F5
DD
09
EE
1D
0C
FA
0E
08
07
F5
FF
02
04
FE
F9
06
04
FB
05
06
03
FA
FF
0A
06
FC
F8
FF
03
FE
00
FB
01
01
00
F4
F9
10
00
EE
1B
02
00
10
05
FC
0A
0A
E7
F1
0D
F9
18
02
F4
18
07
FE
F3
FF
05
0D
F9
F7
08
F7
0A
FC
E0
3A
39
FD
0E
19
03
E0
F3
16
F4
06
10
06
0C
3D
0E
0D
0F
E5
03
F7
F6
32
E9
EC
2C
2C
E2
F8
EC
0D
03
CB
06
FE
02
FB
0E
01
05
06
0C
EB
FE
0A
EE
FB
EA
F9
11
17
F4
F9
07
08
F9
FB
06
04
06
FA
FF
00
EF
00
FB
10
0B
0A
09
FC
F2
01
1E
FA
03
08
E9
03
FD
FC
10
0C
04
0C
00
FD
F7
FE
10
17
F3
F5
04
FC
02
F5
13
06
FD
F6
E4
0A
0D
11
02
05
FA
FF
0A
07
00
D9
0A
09
03
1C
06
0F
E7
EC
02
F1
16
27
05
F4
FE
F1
16
F8
0A
F7
04
FB
FD
02
00
FC
FD
03
01
FE
3D
E0
EE
03
20
EC
04
17
E7
03
26
FB
06
08
07
13
08
F6
FA
00
FC
0D
0B
FD
0E
02
F6
FE
1B
07
07
08
EC
09
FC
01
07
06
00
14
01
FD
F4
FA
0A
FB
03
06
0D
11
F3
F2
0D
1E
15
09
E6
14
E5
F1
F3
11
F8
FD
0B
EB
0A
06
F4
05
F8
FC
00
1E
EF
0C
0E
11
03
F1
09
F0
13
10
18
10
BD
F8
04
AE
07
0A
F2
D7
02
0E
0B
F5
0E
0C
FB
1C
09
0D
00
E0
16
FF
FE
1F
FF
0A
FD
E7
E5
1A
EB
02
05
07
FF
08
00
FE
03
04
FE
01
FF
FA
05
FD
FC
05
F9
FB
FB
FD
FC
FF
FB
FF
FF
0C
0B
FA
02
02
07
FD
06
00
15
01
0C
02
21
0F
08
FD
01
09
F4
DE
03
0F
EF
F8
0F
0A
FB
04
FE
E9
10
0D
12
DF
F1
1D
F6
FB
F2
0C
EC
08
0D
07
0A
0E
F2
06
FB
F8
07
FD
03
02
07
F9
06
02
00
FA
FC
F9
F5
FB
F8
FB
F8
F8
06
0A
00
FB
03
FD
0B
05
0D
FF
02
1B
15
19
04
00
FF
08
06
04
12
ED
F6
13
FF
22
05
08
F3
05
02
FF
06
FF
15
04
F1
3A
09
F9
1A
D5
EC
E8
E2
FA
0A
DE
EF
03
F7
01
12
09
15
FF
08
0A
18
0D
08
2F
09
E8
00
F0
0D
FE
F4
09
DC
E4
13
E4
0E
0D
F8
F0
FB
08
FF
05
0D
0A
11
07
06
0C
F8
F2
06
00
FC
0D
07
0E
05
E5
E2
06
F8
F3
03
09
00
F9
11
0A
05
14
02
05
0C
01
F9
10
FA
01
00
07
0C
12
EB
10
07
09
F0
F9
0C
FE
09
15
06
11
07
EE
10
F9
F1
0A
11
12
1D
12
27
0B
03
EA
FD
ED
FA
05
02
F0
FF
17
05
0D
0A
F8
0A
E7
FF
09
11
FA
1B
FB
F7
F7
0A
DC
03
0E
F7
EB
FD
00
F6
08
E4
EC
0D
E8
0B
05
FB
45
EE
12
FC
EF
23
01
E0
11
F7
14
10
FE
FE
FF
08
05
0E
08
FC
17
0B
0D
0C
F5
FC
12
FE
06
05
05
16
14
E4
08
0D
FC
F5
00
02
02
F7
F9
02
F8
05
FE
F7
04
04
01
FA
04
06
00
00
01
FF
FF
FE
F8
FB
FB
08
01
FC
08
F7
FF
FF
02
00
F7
03
01
02
F8
FA
FB
FC
00
FA
FC
F9
FE
00
FE
FF
02
04
FE
06
01
07
03
FB
FD
FF
FE
05
08
01
F7
F8
FF
05
F8
01
FD
F9
00
FE
04
FC
06
F9
06
FB
FA
03
06
FC
02
FE
F9
03
01
FC
06
FB
FA
05
FE
FB
07
05
F9
FA
FB
04
FC
FC
05
01
01
03
03
FA
FB
FF
FD
FC
05
F7
00
05
05
FF
03
FD
FB
07
FD
06
FD
FF
00
F9
F9
FA
FB
05
FA
09
01
02
00
00
03
00
F8
FA
09
02
FB
FF
F9
01
FE
FD
FB
07
01
FC
05
FE
03
FC
01
FA
FC
02
FD
F9
04
FE
F9
F9
FE
FE
FF
F8
FE
05
05
03
F8
F8
02
FC
FB
FE
FA
09
FC
FB
02
FC
FD
03
06
FA
F7
FE
06
FE
00
03
FE
02
FA
FE
07
03
FC
FC
FB
03
FC
05
FF
FD
FB
03
FB
03
05
F9
02
00
FC
F9
F7
FE
06
FA
FF
00
FB
FB
F8
FC
04
F7
02
04
01
FC
09
01
00
FD
02
FD
07
FB
F9
02
F9
F8
FA
FB
FF
F8
08
FB
FE
04
FB
FD
F8
FD
FB
05
01
FF
06
FB
F9
06
FE
FE
05
FB
04
FF
01
01
06
00
03
FE
FF
FB
08
01
FB
00
07
FB
FE
FA
02
05
01
FE
FE
06
04
FE
FD
FA
FC
FA
FE
FA
FB
F9
08
04
FA
FA
F7
02
08
F9
04
F8
FC
00
FF
00
FB
FC
F7
02
FE
FF
01
FD
F9
04
FA
FB
05
FA
02
FA
01
FD
07
FA
FD
F9
F8
F9
FC
03
01
00
02
02
F8
00
F8
F9
00
F8
03
F9
01
00
F9
F8
FB
04
FC
00
F8
01
FC
F8
03
F8
FD
04
05
FE
02
01
F8
03
06
03
FB
00
FD
00
05
04
02
00
FB
FC
F9
FD
FB
F6
F6
F7
00
FC
F9
FE
FB
FE
F7
F4
F5
02
FE
F7
F7
F6
02
FE
01
06
FB
F5
F4
00
F5
FC
FB
F9
00
F7
FE
F7
F6
00
F7
F9
02
FD
F9
FF
00
FD
FD
00
FA
FD
FD
FA
F8
FC
FB
F4
FF
F7
FA
FC
F6
02
F4
FC
FB
01
FF
01
00
FF
FD
03
FA
04
04
07
07
00
06
00
02
FB
FF
03
FE
FB
FA
02
FB
FB
FD
02
FE
FF
F6
FA
00
F4
F8
FB
FE
FF
F4
00
00
FD
FC
F4
FC
F6
F8
F6
F9
F4
FD
F9
FE
02
F4
FB
00
F5
02
F3
FF
01
FC
FC
01
00
FD
FE
F8
F7
FA
F4
F6
F8
FC
F9
FD
F7
FB
00
01
05
FB
FE
F9
04
FA
03
08
06
FF
01
03
06
08
03
F8
03
00
F9
05
F9
FF
01
03
FC
FF
03
F9
03
FA
00
F8
F8
F6
F9
F5
00
F6
FE
F6
F5
F6
F8
FF
FB
F8
02
F6
FD
03
FE
FF
00
00
01
FB
00
00
06
F8
FD
01
00
07
FE
FE
02
F8
02
F8
FB
F8
F6
F9
F8
FA
F9
FD
FB
01
FC
FD
F8
FF
07
F6
00
FA
00
00
FB
FE
03
F6
FD
F9
F4
FC
F5
FC
FF
F9
FC
F8
F8
F5
FC
00
FC
FB
07
F9
F8
FA
01
FA
02
04
04
F9
02
FC
FB
06
01
03
FA
F5
F4
02
F7
FC
F6
FD
F7
FB
02
F3
F3
FD
FF
05
00
FA
F4
FC
00
F5
FA
F6
01
02
F7
F9
FE
F9
FF
FC
FE
F4
F5
F7
01
00
01
FD
04
FA
F5
FE
FC
03
F9
F6
F6
F7
F8
F5
FF
04
F6
F8
F5
FF
03
F6
00
03
FD
02
FB
F9
FD
FE
FD
FA
F7
02
F6
FA
02
F6
FE
F5
FC
F4
FA
01
F9
FB
FC
F7
F6
03
F9
F7
FF
FD
FF
FD
F5
FA
FB
F4
FD
FC
F4
00
F6
F7
F9
01
FF
F5
F6
F4
FA
F7
F9
FF
00
FE
03
F6
F9
F1
F4
02
0C
0F
EE
16
20
F3
EF
31
F8
0A
F3
D2
F5
05
FC
08
FF
09
0D
07
FB
19
FA
0C
D7
CB
EA
07
DB
1E
FC
F4
FB
F1
05
22
D8
FC
F5
D8
08
1A
F6
11
08
0B
01
F0
09
17
F5
08
FF
F3
F0
FE
11
EE
14
14
01
FC
1F
E9
07
21
F6
02
FC
07
07
00
FA
04
F9
05
04
02
F9
07
F9
01
FC
FC
06
FA
FB
FD
00
00
03
F9
06
06
02
FE
FA
FB
F3
05
02
07
EF
05
FD
F0
08
FE
03
12
FB
0B
FA
13
F1
00
FC
F3
12
13
02
05
10
03
FE
F2
EC
0B
E5
1F
D2
ED
F2
04
06
FE
F8
3B
F8
01
11
03
07
FF
06
F9
03
05
FA
F4
00
FE
06
FE
FD
FE
01
09
01
FC
0D
FA
FB
02
F2
0C
01
15
1D
06
12
01
FC
F8
FE
F2
09
F3
08
E3
F8
06
F0
0A
FC
0D
20
04
0C
20
FB
F9
02
F8
F2
F3
02
F3
EE
FB
EE
F4
DD
F2
11
01
E2
F2
00
01
E7
E9
EC
0F
FA
EF
F7
0E
FB
E3
20
18
ED
00
4A
00
15
12
20
EB
0B
FB
D7
05
09
C9
F0
20
10
F6
05
0F
02
F6
01
F8
F4
EF
F9
02
0E
0C
18
FC
1D
08
0C
15
14
F4
0E
0C
CE
EF
FF
12
1A
FB
0B
01
FB
06
ED
E8
0F
F2
1E
FB
F2
FB
F2
15
06
09
17
FB
FB
FB
09
FD
12
05
FC
F8
FE
FB
F0
0B
F9
1A
01
16
FC
12
1A
0B
1A
14
F7
1B
F4
BD
F8
02
02
02
06
02
F5
E5
FC
03
09
1A
05
1C
12
F4
03
09
E7
07
05
E7
00
13
06
15
00
DC
0D
FB
F8
E6
F0
F9
FB
FF
05
E9
EB
EF
D5
E0
03
01
DB
0A
1F
F6
0D
11
F9
FD
12
FD
06
0A
01
01
EE
F3
0F
F7
14
FC
F9
F8
FD
08
11
09
0B
01
0D
00
01
04
0F
09
0E
EE
0A
FC
11
0A
21
F0
EA
D7
16
0C
EA
1F
09
F8
05
0C
F8
FE
EE
0A
14
2D
06
10
32
F9
DE
F2
05
0A
EB
09
04
E5
0B
E2
2B
0C
18
17
F9
FA
00
F0
FE
F9
0B
F5
0E
E8
F5
10
FB
FA
04
F6
03
08
04
F7
0C
12
F4
1E
0C
E2
17
F9
F9
FB
01
06
07
05
FF
FD
FB
FE
07
F8
F9
FD
08
07
FE
07
05
F9
08
04
F8
FA
FE
09
06
11
02
1A
02
09
F4
05
ED
FC
F5
FA
F0
F2
0C
F3
06
FA
02
F5
00
06
F6
0C
07
06
FD
ED
F7
33
F7
03
02
11
04
F3
DF
FE
1B
FE
0E
F7
07
D5
FF
FD
FC
01
F9
FF
F8
08
03
04
08
01
FA
FF
03
F8
F8
04
02
04
02
FC
08
FA
04
F7
F1
FF
01
F8
04
FA
F0
FA
0B
E1
F0
08
FB
00
FE
E3
F2
1A
00
07
03
0D
EB
F4
FB
EA
09
00
F8
F9
F2
F1
11
04
F5
0D
36
0B
34
FF
1A
25
23
2A
12
03
0C
17
06
0C
0C
09
FE
05
07
0D
E2
0C
02
0A
FF
13
25
CF
01
02
FB
17
1A
09
EE
34
10
F6
04
01
FD
F0
01
F6
0B
FC
F2
0C
F5
EA
0D
07
14
FB
03
F2
06
FB
F2
15
F4
FA
23
01
07
FA
09
07
EB
01
03
FB
0B
F9
F2
F8
02
E8
FB
06
06
03
EE
0D
F9
00
F4
F4
01
FE
F0
0C
F7
08
F1
F2
07
CE
F3
07
F9
12
EB
01
E9
FB
F0
E8
08
F2
08
14
EE
00
11
1F
0A
0A
03
E3
DF
F5
FA
09
EF
DE
F9
FF
EC
F0
14
09
12
1F
FB
08
FF
F2
10
29
00
0C
22
2B
01
01
29
06
08
02
09
ED
19
1B
FE
07
1D
F9
F3
00
FF
E9
01
02
01
04
07
EE
FF
F4
07
F7
FB
F7
E8
FC
FB
03
09
02
F1
0B
00
00
F8
FB
F5
FC
FC
03
F8
FF
F8
03
04
FC
F9
04
01
FD
F9
02
FE
04
05
05
F8
03
02
02
FF
01
00
FB
01
FE
FE
02
FB
F8
F6
FA
02
05
07
01
FE
FE
FC
05
00
05
05
05
03
FC
FA
F9
FD
00
F7
F7
FA
F9
FB
05
F8
05
FC
FB
FF
FB
FA
04
F7
03
00
FD
05
F9
FD
FA
02
FC
02
FF
04
FF
00
FE
FB
FE
00
02
00
03
05
03
FD
03
02
06
07
F8
06
F9
04
F7
FD
FF
FB
FF
04
05
01
00
FD
F8
FA
05
FA
FB
FD
00
01
FD
06
05
02
FB
FF
FC
FF
FA
09
00
03
FC
FB
FE
03
FB
F9
F8
05
01
00
FA
05
03
05
F9
FD
FF
FC
FA
FA
06
00
07
07
FC
04
FC
06
01
F9
06
FE
03
06
07
03
FB
F9
FF
05
FD
F7
FB
01
04
04
FE
F8
05
FB
02
FB
04
FE
04
00
F7
00
F8
06
FD
06
05
07
FB
04
05
FC
04
FB
05
01
FA
01
05
07
00
F9
FC
F7
FA
F7
09
03
00
03
03
FB
05
F6
FD
04
06
F9
FE
06
FA
FF
FC
FB
08
03
FB
00
05
F7
03
F8
FB
03
FA
04
FA
00
06
F8
FB
FE
F7
F8
00
05
FE
00
F7
F8
04
02
03
F9
FB
05
FE
F9
FD
04
F8
FA
01
00
05
FD
01
F7
01
00
01
FE
04
FA
FB
FB
03
03
FD
05
03
05
05
04
03
FD
FE
01
01
04
FD
06
FC
06
05
00
06
00
05
F9
06
F7
00
F9
00
FA
FA
FD
05
F9
F7
06
FD
07
04
03
FC
F9
07
FC
04
00
FD
06
FB
FB
00
F8
FF
02
FE
03
00
05
FE
FA
FA
FB
FE
FB
FF
02
FA
FB
FF
FC
FE
02
F7
FD
04
FD
F9
FF
04
FD
00
FF
05
06
F9
03
F9
02
03
01
FC
05
FA
FB
FA
FA
FF
FC
06
04
00
FB
06
FF
04
FF
F9
00
FA
01
FB
F8
F2
FA
F2
F0
FD
F9
FD
FD
00
FF
FA
F7
F4
F1
FB
F5
FC
FF
01
F6
FF
07
06
FA
F4
F8
03
FE
F9
F2
F5
F7
F5
F9
FF
FF
F7
F3
FB
04
F3
FD
01
FC
FC
FF
06
06
F2
05
05
F8
F8
F6
00
F5
F6
FA
FB
FF
FB
FF
F4
05
FA
01
FE
FE
05
05
F9
00
FA
FC
05
FA
06
FB
FD
06
FC
F9
01
FC
FC
F8
01
06
04
FB
FC
03
FD
06
F8
02
FE
04
02
FD
02
FF
F3
F8
F7
00
05
FB
F6
F4
F0
F9
08
01
F8
FE
04
00
05
0C
F5
F1
FD
FB
FB
FC
FA
F8
FB
F6
F8
FF
F3
F2
FD
F4
00
04
FC
02
FE
FC
F4
0B
FB
F9
FC
05
04
00
00
00
05
03
FC
06
01
03
07
00
07
06
FA
03
07
FF
07
FD
06
04
F6
FA
F6
F5
F7
FC
FD
FA
F0
F9
F9
F3
F7
F3
F6
FB
0C
FD
FE
01
FF
F8
FA
FD
F2
F7
F1
F9
FF
F4
F5
F8
F0
F6
F2
FB
F4
F3
FB
FF
04
FA
01
F6
F7
03
FC
F0
FE
F9
F7
F7
FD
F4
FA
00
07
FB
F4
FA
04
FA
FD
FE
F8
00
FA
FE
F2
F6
FC
03
F7
FC
F2
F5
01
FC
F5
F3
F7
F0
FD
F2
F7
05
FC
FC
F1
F8
FE
FA
00
03
02
F8
04
07
F6
03
FA
F5
F7
FF
FC
F4
F5
F1
FD
F2
FF
F9
FA
FF
05
FE
FF
04
FF
F6
06
00
F9
FE
FB
00
F4
FB
FB
00
FD
FC
FA
FE
FD
00
F9
FA
F7
04
F6
01
00
F8
F8
0A
FA
FB
FC
F9
03
F9
F6
F0
02
F6
00
F3
F5
F7
F3
F8
F6
FF
00
F5
06
04
FF
FC
07
00
FA
F8
F9
F6
F9
F6
05
FA
FE
F9
F7
F3
FA
FE
00
F2
F9
FA
F1
F7
F9
F3
F7
04
FD
F7
03
F8
F3
F4
03
F7
F8
F8
F4
F5
F8
F7
F5
F7
00
03
FC
01
FB
05
F7
FF
F6
F9
01
0C
1D
01
FB
17
15
E1
0D
27
22
0E
17
21
DD
ED
FC
F5
FD
FE
01
FC
0D
EC
D9
05
E4
F6
F2
F1
FC
0F
E9
E9
17
F2
F1
EE
0C
EE
F2
01
F9
17
0E
09
1E
FD
FB
E4
04
0F
08
FB
09
EE
FB
04
14
F6
EC
23
F7
01
0D
F8
F8
16
2D
02
20
F8
FC
04
FF
04
FF
00
FB
FD
FF
FA
01
07
F8
FD
F7
FB
03
06
F9
03
FE
00
F8
FE
F7
FF
F2
07
03
0B
F9
FE
13
F9
15
F2
08
E0
F8
FD
F9
0F
EE
01
1E
15
07
24
05
F7
E8
04
F8
0B
E8
09
F7
10
F0
DB
14
EB
F8
E1
F1
FD
02
10
05
10
27
23
02
05
08
F9
01
FF
F9
FB
FA
FA
06
05
0A
FE
03
F9
0C
FA
FD
05
F2
00
FE
0A
08
0B
F7
00
F2
FF
1B
F8
08
F2
0E
EB
E4
19
00
F9
E3
F7
F5
0E
0C
FF
24
2C
25
12
EC
FF
01
03
15
F6
F9
FC
05
DE
F0
F0
FE
0B
2F
18
09
06
5C
06
F3
FC
FC
F9
F3
02
12
F5
0A
2F
F0
F7
29
03
DA
3C
1E
0F
F4
43
F3
EB
1F
F5
E9
F0
03
FC
FF
F1
04
07
05
12
17
04
10
F3
03
FE
02
F7
FA
33
F4
FC
17
07
00
09
0E
33
1D
0A
FE
FF
F5
06
09
0B
0C
E9
14
F2
DF
10
FD
01
EE
04
FF
05
00
07
0B
1F
10
16
EC
0B
04
01
1D
05
FA
F1
FA
01
0B
12
F0
FD
16
EE
FF
2B
FF
01
0B
06
45
1F
0B
01
E4
01
F1
0D
EE
FB
1F
0A
03
FF
0C
01
FF
FF
FE
E9
09
E7
F6
07
0B
08
0D
07
DF
10
08
AA
F5
09
F8
D8
0C
08
D8
26
06
DB
F8
00
0A
F9
09
00
10
1B
05
02
FE
F4
FE
07
16
0A
02
FC
12
02
FA
0B
FE
0A
F8
FE
04
08
F5
0E
12
11
0D
03
FB
13
FD
05
05
04
F9
1D
FE
03
F7
11
1D
FE
04
1B
13
06
05
10
FF
F9
FF
F1
1B
F6
12
FD
F1
07
00
D9
DC
E9
EE
00
F7
E4
07
0C
04
31
12
05
FA
04
03
F7
F0
13
F6
08
06
07
0E
06
0D
E4
F2
19
FE
1C
06
06
01
06
07
0A
F3
00
0E
F4
F0
00
01
01
FC
FD
05
FF
05
05
FD
FB
FF
03
07
FC
FD
01
FE
FA
07
06
FF
FA
04
00
0F
06
11
00
07
04
F8
E9
EB
F4
06
E2
F0
FD
0E
1B
0D
0C
05
07
F9
02
EA
F6
F9
24
00
0E
F6
09
F3
FF
F8
06
09
14
1B
E9
10
0F
F4
0F
F7
FA
11
F8
E8
FE
F8
FB
FE
FB
FD
00
FB
02
FE
01
04
00
F4
02
04
07
0C
FB
FF
00
0B
07
F5
FD
04
0D
08
11
0A
EA
FC
F4
E9
E3
E5
F9
0E
29
F5
07
11
F2
13
FD
FC
11
FB
F5
01
FF
00
FC
FB
F7
E1
F0
F4
21
17
2E
15
2D
07
0B
EB
F1
F8
FF
DD
1B
FF
F0
1D
00
F2
EE
1B
FF
0C
DF
E2
0C
19
0A
F0
34
FA
12
F8
03
24
10
04
16
05
FA
0A
06
F3
FF
03
06
01
FA
FC
EB
2B
01
07
27
EF
1A
FC
0B
F3
01
06
0D
FD
FD
02
D1
D0
06
FF
13
01
FF
07
F5
F6
EE
F7
E9
FF
1E
FA
0B
05
FA
10
0D
04
04
F6
E4
EB
F7
09
07
0F
F8
FB
FC
F3
07
05
08
17
EF
1F
F6
03
04
F8
0D
03
FE
FC
EF
B6
E4
07
07
19
F8
04
F8
0C
F7
E5
E3
EA
F6
09
09
0B
F5
06
07
0C
0E
0E
04
04
F1
F4
04
26
FF
01
F6
0C
01
0A
FC
F6
01
EC
F7
F1
16
FE
09
FA
EE
F8
FD
F2
F8
FE
06
02
0C
01
F8
FD
FC
F1
F1
F4
FC
F9
1A
08
0B
08
08
07
06
08
02
03
F6
F3
F8
F9
00
EE
F4
15
FC
0E
0F
10
09
07
09
1A
0E
0B
06
03
07
0D
06
F6
04
09
FD
06
F3
F7
05
12
F7
F6
F0
07
F3
10
F0
F9
DE
FA
07
0F
26
08
EB
02
16
12
F8
05
0B
0D
04
03
18
01
FB
12
06
F1
0C
03
18
FB
0A
1A
FE
FE
17
EF
F8
15
08
F8
FB
05
00
06
FD
03
F9
02
FD
FB
05
FD
FD
FE
F9
FD
04
FB
06
03
FD
FF
08
FA
FD
FC
FC
F6
02
18
FA
0C
F9
09
E6
04
F6
EF
07
02
02
02
06
09
04
0D
F3
F8
EC
F5
20
0E
FC
17
FA
15
06
EA
F9
18
EF
13
E1
01
08
FD
0B
FE
FE
18
F8
F8
09
F5
FD
FB
FA
01
FD
03
00
00
08
FA
00
FD
F9
F8
03
FD
FB
FA
0E
0D
FC
FB
F9
FA
FE
09
09
0F
1C
F5
08
FF
E9
E8
1A
F8
0D
EE
0A
0F
F3
0B
0F
01
1B
FB
01
22
05
05
FB
FA
F9
EB
F6
05
ED
F5
F1
06
0D
E6
15
24
F4
ED
F3
F0
EB
ED
E7
0C
F4
F3
03
15
F9
EC
3C
0E
04
0E
29
0E
41
19
2E
F2
13
18
F9
0F
25
00
EE
1B
09
E6
04
05
F9
FE
0C
FA
07
11
09
01
1C
02
10
ED
25
15
0C
02
0F
FA
F4
0D
CB
EF
F8
08
14
04
12
FE
09
00
EB
F2
19
F2
11
F2
04
00
F9
0C
08
01
01
01
F6
F9
05
0C
0D
06
09
10
F6
07
04
06
FF
34
FB
19
EE
0C
2A
00
05
0B
FF
03
F7
AB
F5
03
F2
09
F9
0A
0C
F8
F8
0C
09
1D
FC
1A
10
01
F6
05
03
12
FA
F0
FC
11
FA
02
F6
E7
05
FC
08
E8
02
00
0A
FC
FF
E5
ED
FF
E4
DD
EF
FA
E5
02
07
F3
02
09
F6
00
11
FB
0F
FC
08
01
FF
F5
0F
F5
0F
F7
05
00
00
05
0A
06
05
F8
12
00
FF
FD
1B
01
F3
12
D0
0D
09
F2
DF
FC
1E
F6
0E
FE
0C
30
08
13
0C
03
0B
0C
00
E1
DC
F0
05
F7
18
60
F2
02
31
07
02
E6
DF
20
05
E6
50
16
F2
20
F9
00
02
FB
FD
10
06
08
03
0B
1C
E3
15
FC
1E
17
02
0B
E6
28
07
F3
03
0D
F2
F4
0C
EF
FE
00
06
02
03
04
04
00
FD
00
FB
00
05
05
FB
FA
FE
03
06
FA
F9
03
01
05
03
FE
FE
04
0A
05
14
0F
FA
E6
FD
02
05
FC
F9
16
01
01
FC
0D
0D
EB
F2
EC
E4
F6
FE
F8
09
17
F3
FD
05
F8
15
0C
22
FF
21
11
1E
1D
12
05
F2
FE
EB
F7
EB
F7
08
01
FA
FD
02
FD
02
0A
07
02
FC
01
08
05
06
FF
05
08
FC
0E
00
FA
F5
01
F4
FA
06
12
0E
FC
0A
F2
01
FA
02
1E
FE
12
2D
22
1C
0D
01
FA
03
EB
EF
ED
F7
06
F9
08
FF
F3
EE
11
18
C7
E6
1D
25
F3
02
F7
ED
09
F2
D6
FC
FE
F6
ED
00
FF
09
07
05
F7
12
F3
17
F2
B5
12
FE
1B
16
EC
EB
29
32
F9
21
26
03
0E
08
F9
02
0A
FE
03
02
03
0D
F8
01
02
12
18
FC
FA
DA
31
07
E4
02
0D
FA
F9
C4
F0
01
03
04
05
06
02
07
EC
F7
FC
04
19
F4
0C
18
10
05
FB
00
F8
FC
F6
F0
E5
FE
06
0F
03
02
FB
05
1C
FA
13
10
1B
1D
FC
F7
E6
27
FE
E1
12
07
FA
F8
C0
E7
E9
F6
11
F4
EF
1A
39
02
11
19
F2
F5
0E
FA
0A
16
0A
19
14
13
17
F7
13
FD
FC
02
03
FA
02
1C
0E
16
1A
01
12
FA
E3
FE
FF
06
F5
FF
06
FA
01
FE
F8
F9
FD
01
FE
07
06
07
10
0E
F9
02
F7
FB
12
F5
00
0F
13
04
F8
02
FD
06
F4
00
ED
FC
