F9
0A
FD
03
04
25
16
FE
EE
FF
F1
F6
12
F1
FF
10
24
F2
ED
F4
03
05
F6
01
FC
10
02
04
13
01
F5
EC
1A
E5
F5
19
E6
FE
DC
F7
0D
DA
ED
03
05
E6
ED
00
0C
FD
0B
0B
FF
0E
03
F0
00
FB
FF
F1
EF
1A
08
F1
16
02
F4
F3
FA
0C
0E
D5
1B
FA
F9
FE
FF
FC
FA
08
F9
03
F7
FA
00
03
04
02
01
01
02
02
04
08
08
04
05
05
FA
F9
00
04
FE
FE
FD
03
16
0A
DC
01
E3
0D
02
0B
0E
D9
ED
09
09
00
F8
20
03
0A
FA
09
F7
0E
01
EB
0C
0B
F7
11
1B
12
DF
00
FF
09
F0
0D
F7
01
07
10
06
FA
FA
F9
05
F8
FE
FB
02
05
FB
02
FE
00
06
F8
FB
02
00
0E
05
00
01
FC
FF
07
11
F9
03
0E
06
F2
E9
11
F1
11
0E
1F
1F
E8
06
08
0B
EA
F8
FF
FA
03
FF
E6
F7
04
FE
F2
01
F4
09
04
12
F6
FD
0C
21
F4
EE
EE
ED
0D
24
02
03
03
E5
F3
02
08
FD
F4
03
20
D9
03
15
2B
05
FE
0D
EA
F2
E8
26
0B
00
FE
04
FD
F5
FC
0B
00
03
F4
FF
F5
FA
F9
09
0C
F1
F4
E8
09
0D
F3
FE
EC
03
E6
F8
0B
06
E0
1E
08
16
FB
04
05
04
FD
F7
04
E9
FC
10
11
1A
E8
02
07
0A
E1
F8
FC
EE
04
0C
00
FB
FA
02
01
FA
F2
F3
11
0B
F4
FD
ED
19
FF
EB
05
F9
F7
E0
F8
0E
0B
1C
0A
02
FA
01
10
03
09
0A
F8
0B
E0
F5
06
0A
FB
E7
F3
F9
0A
ED
00
04
F0
F1
F2
06
00
10
08
FE
F9
E3
0B
0A
21
EA
01
04
F4
0A
03
05
1A
02
EE
FC
13
04
14
FE
0C
FD
0B
10
04
02
F1
FA
07
E9
FD
0A
0A
0A
FA
0B
01
0B
F1
F5
FD
E9
F4
F5
08
FF
05
FD
05
F8
F8
02
F7
FB
06
FF
06
02
01
F7
FA
FA
06
F9
05
F9
F9
04
FD
F8
00
FD
05
02
F9
FA
FB
04
FB
FE
06
F9
01
04
02
04
00
06
02
01
07
FF
03
FD
F7
00
FF
FD
06
FF
01
F8
FF
02
00
FA
06
06
05
FA
FB
FC
FE
F9
00
FB
01
FE
FB
FB
03
00
00
FD
02
FA
F9
04
06
FD
04
06
F9
06
03
07
05
01
FA
FB
00
02
04
FE
07
FA
FB
04
F8
01
FE
FC
07
F8
04
04
FD
FF
01
F9
F9
00
01
F9
FD
00
03
FE
FF
FF
FC
F8
F9
05
FD
FF
FE
FF
01
03
06
FF
04
FA
F9
F8
03
F8
01
FE
FE
FE
01
02
FA
00
FE
04
01
FB
FB
05
00
04
01
01
07
03
FE
FB
04
FE
01
08
F9
07
02
FE
04
FA
FD
05
04
FF
03
F9
03
01
F7
FD
04
04
F7
01
05
FA
06
FC
F9
04
F8
F8
03
00
FE
06
01
F8
FA
F8
FC
00
03
02
FF
F8
F9
05
FA
FB
01
07
FD
FF
F8
02
FE
F9
FA
FB
FA
F8
01
02
FB
FE
03
06
F8
00
02
F8
FA
FB
FF
F9
FA
02
04
FB
FB
FF
F9
FA
FF
FD
04
FB
FD
03
FF
07
FD
03
04
FE
FF
FC
FF
05
FE
F9
F9
01
04
FA
06
FE
FA
FF
05
07
02
05
F7
05
F7
FF
01
01
02
02
FF
00
00
FE
F9
04
FF
FD
04
FD
00
03
07
FF
FB
F9
03
FC
FA
04
04
FD
FC
FF
FF
F9
06
06
02
05
FF
02
05
FD
FF
08
FC
02
07
04
01
06
01
03
03
06
FF
01
03
03
FF
06
07
02
00
00
F8
FB
FE
F9
04
FC
04
FF
FB
FD
F7
01
03
F8
04
03
03
FB
FE
FD
04
03
FF
06
FA
03
01
F9
F7
FD
FE
FD
FD
05
F8
04
00
F8
F7
02
FC
01
FD
04
01
06
FF
F9
00
01
FA
02
01
04
03
FE
F7
F6
FE
00
00
FC
F5
F9
F8
F7
F7
FF
F8
01
00
FC
F6
F6
F6
04
08
06
F5
01
03
02
F9
04
F7
04
F8
01
0C
FA
03
08
FC
FA
03
0B
03
06
FE
F7
01
F7
04
03
FD
00
F9
F7
FE
FC
FF
F9
02
FB
F5
F7
FB
02
F5
F6
FC
FC
F6
06
F9
FA
FF
06
01
01
FD
FB
FF
FB
FF
00
FF
04
FA
08
04
02
06
FF
F9
FB
FA
F6
FD
00
FF
FC
00
FB
FB
F9
F7
01
FD
FB
FC
F6
FE
FE
F8
09
F8
FC
01
04
04
FF
F7
FA
08
FA
00
02
F7
FD
00
FE
F5
02
00
FF
F8
F9
FF
04
F5
FA
F9
04
01
00
FB
05
01
FA
05
FB
F9
00
FB
FA
03
FD
07
00
05
01
03
FE
00
00
06
FF
01
02
01
F5
03
02
0C
F6
FD
F9
F7
F7
03
FC
FB
00
FC
FF
F9
04
FF
F7
03
F8
03
F8
02
F5
F7
F9
FB
F6
02
F8
F5
03
03
FA
FC
01
01
FD
FE
05
FC
F6
FD
F6
FC
FB
F6
FE
FB
FE
FD
03
F7
07
F9
FC
FE
01
FA
FF
FF
02
FF
01
F6
F9
F7
FC
F7
F9
F9
FD
FC
FE
F5
01
FD
F6
F6
FF
F5
FC
FB
F9
F6
03
FC
F6
F9
F8
FD
FC
01
04
F5
03
FD
F6
FB
FF
FC
04
F8
FA
F9
F6
02
F5
F8
04
03
FF
02
00
FD
FD
F7
FA
F8
F5
00
FC
F9
FA
FF
01
F5
FA
06
02
F7
00
FE
F9
03
06
F9
03
FB
FC
F8
01
FD
F5
03
FD
FD
FE
F4
03
FC
F7
FD
03
F8
FC
FD
FC
FF
FA
F8
F5
F5
FE
F6
FD
F9
F9
01
0C
F7
FC
01
04
01
02
00
FF
FD
F8
FE
FA
01
F6
FB
09
FC
F8
FE
FB
FE
F5
F7
F9
04
00
04
07
FC
FB
F6
02
04
F6
F5
FF
FE
F5
F4
00
FA
F6
FE
04
FC
F8
FE
FA
08
F5
F3
FD
FB
F1
F8
FF
F4
FB
FC
FF
F6
FA
F9
FB
FA
FF
F9
F4
F9
F5
FE
FE
FE
F3
06
F5
00
FB
00
F6
F6
F2
F8
F3
FD
FD
04
FC
F5
F4
FD
FB
FD
FB
00
FF
00
07
FC
04
FA
00
F7
FF
FD
01
FC
FA
FC
FD
F7
FD
F9
FF
F2
FA
F9
F6
02
FC
FD
02
03
F9
01
01
FE
04
FD
07
07
FE
FD
07
04
06
FB
FB
FC
03
FB
04
FA
F9
FF
05
01
03
02
F4
05
FB
FD
FC
FB
FE
02
00
FB
FB
FE
F7
F0
FF
FB
06
F9
05
FF
F9
02
FC
FE
04
F7
F8
F2
F1
02
05
FF
FA
FC
F7
F6
FF
FB
FA
F9
FC
FA
FB
03
F5
05
FD
F9
FF
08
06
FF
02
00
FF
07
FA
03
FC
03
08
04
F9
03
FB
05
FC
02
04
FE
FD
FF
FC
FC
FE
FC
F5
FD
FD
F5
FB
05
FF
FA
F6
01
F0
F9
F2
FF
F3
FA
04
00
05
00
F2
F2
FF
F6
FB
F2
03
F7
FE
F8
F5
F4
FA
F0
F1
01
03
F4
F3
06
FD
F5
F9
FE
F5
FF
00
FA
F9
F1
FF
F5
FA
01
FF
FD
F9
F2
F7
F8
FD
FD
FA
F5
FB
F1
FC
FD
F9
FA
FF
F9
FD
F8
01
FF
FF
FC
FC
02
FA
FD
F7
02
FB
FC
06
03
F5
F6
F9
FC
05
01
01
FC
F2
FC
F6
FD
F9
01
01
F8
FA
F9
FA
FA
07
F6
05
FD
FB
F2
07
02
05
FE
F7
00
FF
F3
FD
00
F8
FC
F2
FE
FD
01
00
06
02
F1
F9
FB
F9
F3
FC
FC
03
FB
FB
03
FB
FE
FA
FF
FD
FA
F9
FC
F7
FC
F4
FC
02
03
FB
06
FE
F7
FA
FF
00
FF
F7
04
F8
01
F4
03
FF
FA
FB
FA
F0
F2
FB
FD
F8
F9
01
FB
F6
F7
FD
F3
F5
F2
F3
F0
F7
F1
FE
F9
FF
F9
F9
F8
03
01
F9
F7
FD
FD
00
F5
05
00
FE
00
03
FB
FD
03
04
01
03
08
0B
81
E6
05
D1
F1
18
03
02
20
18
08
02
F3
FD
F1
F9
F7
05
0C
06
F7
0C
19
15
3E
42
FC
F8
FC
E8
0D
03
04
3E
F4
03
F0
FC
FD
15
E1
0A
F3
FE
FE
F3
E6
01
04
D9
E6
FE
FB
11
08
03
16
33
2E
F5
F5
EB
FC
E7
15
F4
10
F5
0C
01
FE
FB
FB
03
07
F9
F9
09
07
06
07
05
01
01
04
FA
FA
06
FD
07
FD
00
FE
FD
F0
DF
01
08
2D
01
1F
1F
0A
F9
F2
02
01
03
0B
05
E8
13
09
10
FE
09
F4
0F
E7
F3
E2
F9
DE
0E
12
EA
13
26
0E
28
15
F9
04
FB
DB
FA
FF
FA
16
02
FB
FF
F9
05
F8
FC
06
FF
01
00
FD
00
04
00
05
00
FF
FD
FA
FB
01
04
05
04
01
07
07
F4
EA
EF
1B
08
F0
09
E7
FD
15
07
1C
FA
04
01
F5
ED
EC
02
F4
20
FB
0B
0B
FF
FE
EE
09
F4
DC
0B
F9
F8
12
1A
14
F4
EF
06
03
08
03
0C
EB
08
00
00
E3
FC
04
08
0C
0C
D3
F0
00
F2
B6
02
F9
08
0B
1B
16
FC
27
07
E2
E7
E4
08
FF
06
FC
EE
E9
0E
F6
EE
F2
0C
12
0B
10
03
1D
08
22
EF
01
DA
0D
00
01
F3
E4
F3
07
FE
F7
06
0B
0D
0F
0E
F5
1B
11
0A
0D
0A
E8
F7
02
E9
02
0A
11
06
EC
F9
E7
FC
EA
DD
FD
F9
E6
E5
0F
12
F4
0A
F2
1D
0B
26
FC
00
E4
12
FD
03
12
F2
FF
11
F1
1D
24
06
37
D8
02
F9
E0
EB
0E
02
FF
1D
0B
FD
EF
06
FA
0C
E7
FB
F5
FD
F8
20
FB
FF
12
32
1B
F7
01
09
12
02
1E
08
F1
21
06
DF
F5
09
00
F8
F8
07
01
F0
DB
F6
17
09
F9
FD
FD
15
08
12
01
0B
FB
FC
02
E6
FE
02
08
FB
E0
FD
F1
11
11
FD
14
CD
F2
25
F2
CF
F4
0B
FC
10
12
06
12
0B
FA
0D
F0
F6
0C
F6
FC
0A
EC
F3
10
EA
06
F3
1D
10
F0
05
0E
0F
10
4E
14
09
08
FC
FF
F0
FF
06
08
13
FD
F5
FB
FD
F3
04
00
FB
09
05
12
1C
25
08
FF
11
F7
04
04
FE
07
08
EF
02
03
08
FF
06
FC
FC
07
FA
03
FD
FA
FF
FA
FE
04
08
04
FA
FC
FA
FF
FE
FC
FA
05
FA
F0
EF
06
F4
FD
FD
F9
2B
04
0E
22
11
03
F2
0E
09
04
FE
F1
FF
01
04
05
15
F4
0D
FF
F2
01
18
0B
FF
FC
FE
0D
0D
0B
E9
17
F3
03
EE
F4
06
0F
FC
09
14
07
03
05
03
FB
FD
FD
01
02
FF
FC
04
FE
F8
04
02
02
FC
0A
F8
07
03
01
FD
FC
DD
FA
F6
DC
03
0D
04
04
F6
FF
0D
02
03
EC
03
04
EF
F4
F1
F7
0B
F4
F8
04
0F
17
0F
10
0D
0F
09
15
D7
CC
1D
D7
CE
EA
10
F9
0E
10
05
F5
F8
13
03
01
0B
0D
F1
09
07
C7
26
2C
BB
F3
39
F0
F3
FF
14
08
12
FF
01
FC
EE
00
F4
02
1E
FA
07
FC
06
FE
FD
04
FE
25
F9
F9
F8
22
05
F0
0E
F4
09
F7
03
FE
06
ED
1D
00
F4
F6
F4
E7
F9
03
0C
0C
06
FD
08
1C
12
00
10
EA
F8
F3
F4
00
0F
F3
08
0A
F3
03
F3
08
F5
FF
00
02
2C
00
FA
21
20
01
E7
10
FE
01
0C
02
F5
0B
FF
13
0A
F8
F8
12
FE
F4
F9
1F
F9
FD
15
FB
12
0A
1C
04
09
00
F8
0A
F6
FE
EE
F8
0E
0A
E8
0F
FF
EB
15
02
F7
0E
FB
F6
DE
F4
FC
08
FF
09
06
04
0D
F6
08
0C
00
0D
F1
FF
03
EE
FA
FC
02
FA
FD
FE
07
1F
07
0B
01
F6
FA
F9
F8
F5
06
F0
09
04
00
06
04
F9
F8
FB
0A
03
FE
00
FC
0C
FE
00
02
02
FA
F7
00
F3
03
FA
F8
01
F7
F5
04
F6
07
FB
F5
FE
03
FC
08
05
01
FC
FB
FF
F7
F2
03
03
00
01
02
FE
03
01
F8
F5
FA
FD
04
02
06
04
F9
FA
F9
FF
FF
02
F9
00
02
F3
FC
08
F9
F7
05
F7
08
03
02
00
02
00
08
06
FC
02
FC
05
FC
07
04
FF
06
FA
06
F8
07
02
05
FE
F6
FE
00
05
FF
01
F8
06
F9
00
FD
FA
06
FA
F8
F7
F8
F8
F8
00
F9
02
FE
FE
02
FC
FE
04
01
F7
FA
F8
F9
00
F6
FD
FE
02
F5
F8
FB
03
F4
FC
FC
F8
04
03
02
F9
FC
04
FB
00
FA
08
FA
05
03
FC
01
07
04
03
05
FC
00
05
FF
01
03
FE
FE
06
FE
00
FE
03
FF
F8
03
FF
FD
02
FE
04
FC
FA
01
FF
F8
FC
02
04
FE
FE
01
F8
F8
02
FB
00
FF
06
FE
FC
FC
F6
00
F9
F7
FA
FC
FA
02
03
F4
00
F9
F9
05
F3
F8
FC
07
FC
FC
FC
05
04
FD
02
FE
00
F9
02
F8
F8
FE
F8
FE
F8
F5
F7
F4
02
06
FD
F6
00
FD
04
02
00
05
03
FE
00
F8
FA
FA
FB
01
F7
FE
F6
F9
FE
FE
02
05
FB
F9
FA
FE
05
F5
F9
FC
FE
F9
03
00
03
FE
F7
FD
FC
00
FC
FB
02
02
01
05
FC
FD
FF
FA
03
FA
FF
00
0A
00
06
04
FD
FB
F9
04
FF
FC
FE
F5
00
08
03
03
03
05
F7
01
FD
FC
01
F3
08
F8
FF
FC
05
09
FA
02
F4
01
FD
01
FE
02
F4
FF
FE
FF
06
03
F8
FC
06
FF
01
01
F9
02
FE
02
FB
00
05
FF
F8
F6
F9
F4
FE
FA
F6
FA
F6
F5
01
FC
04
FE
FA
F9
04
03
F9
00
FA
FA
02
F3
F5
FD
F7
F9
FF
02
FE
04
FC
06
05
00
FF
FA
02
03
F7
FD
06
06
00
FE
F7
03
00
06
FB
F9
00
03
FC
F8
FF
F8
FA
00
FD
FE
F8
03
F9
FC
FF
05
FB
01
FE
07
FE
FE
03
01
FF
09
F9
00
04
07
FE
07
FD
00
06
02
02
05
FC
F8
F9
F8
05
F7
F9
F8
FA
03
FC
FB
FE
F8
F7
FB
01
F9
F8
05
04
02
FE
07
FF
F9
FD
FA
01
FD
FE
07
04
FC
04
FF
F9
02
FE
FA
07
00
FE
FD
F9
FA
06
FD
04
FC
FF
02
06
00
F7
F8
FB
FF
FF
FB
05
FE
04
FF
F9
FB
05
07
04
06
F8
05
F8
03
FF
FC
FB
00
FB
F9
02
02
04
FA
FF
FA
04
03
02
07
08
FC
02
00
FC
F9
06
07
01
FD
04
FB
FF
07
FC
04
FB
F9
05
FF
01
FA
FD
06
06
FE
FB
04
01
06
F9
FD
FA
04
F8
02
F9
FF
F8
00
FF
F7
05
00
FA
03
05
06
FA
FB
F7
F9
F7
FB
03
F9
FA
01
07
FA
08
06
FE
05
F9
04
F9
FA
03
01
02
FE
02
04
FC
FF
04
00
F8
FB
05
F9
F9
03
F7
FE
FF
FE
FF
F8
08
05
05
05
F8
02
03
00
FB
03
FA
00
03
FD
FE
F9
FE
FD
05
FA
05
05
02
F8
FD
01
FA
03
05
F7
03
F8
FB
FC
06
00
07
FB
FB
06
F7
F8
FA
FD
06
FF
02
04
FA
F8
FB
06
F8
07
FE
F8
01
FC
F7
03
00
02
02
FC
F7
03
FB
FA
05
05
FB
03
F7
03
FD
00
FC
FF
01
FB
FD
FE
07
00
05
F9
05
01
05
04
FB
FB
03
03
FD
04
FA
02
FD
00
02
03
02
FB
06
FE
F9
F7
04
02
FC
02
FA
01
04
00
F8
F9
F9
06
06
00
01
F8
06
03
FB
FD
FF
FA
F9
F8
03
FC
F9
FF
01
05
04
F7
FC
FF
00
FD
02
F7
FD
06
02
F8
01
06
05
04
FA
F6
F8
01
00
F6
FC
00
FB
FC
FD
F4
F5
F9
F6
F6
F8
FE
01
FC
F6
FB
FC
FA
F3
F4
06
FF
FD
05
FD
F9
07
F9
F8
F8
FD
F7
FB
FB
F9
FE
F8
01
FA
FE
00
04
F3
05
FF
F4
F9
FD
FB
FC
F3
FB
F4
F4
FF
00
FA
F4
F9
F9
FF
F9
F7
00
FA
F8
FD
F4
F7
02
F9
FA
F9
FA
07
06
06
04
FB
05
FD
FF
FD
04
FA
FD
04
FD
F9
F9
FE
02
01
03
03
06
FB
FD
F5
06
03
FA
FD
06
03
00
FE
06
F6
F7
02
FB
F8
FE
F9
03
F4
08
FC
FB
FC
00
02
FC
FF
00
02
F4
FF
F9
01
F9
FB
F4
FC
FD
FC
FC
04
FB
F6
F8
FF
FE
FA
FD
FA
FA
F9
07
03
04
05
07
01
07
06
F9
00
FB
FE
00
02
05
FF
04
F9
F7
F6
F6
FF
FD
F9
08
00
02
FB
F8
01
FC
FA
04
F5
04
05
F6
F9
01
FC
F7
F9
FA
FA
F3
FB
FF
FB
F6
F6
02
FA
FE
F6
F3
FE
03
F6
07
F9
F9
F6
F9
FF
F4
F9
00
F8
F9
02
FA
F4
03
02
F3
FE
F6
F7
F9
F7
00
FD
FA
00
FA
FF
01
F9
F4
FF
FE
F8
F5
FE
03
FB
00
F6
FC
FB
02
FA
FC
FE
F4
F9
F6
03
FD
01
F5
03
FD
04
F7
01
F9
02
FF
FA
F6
F7
00
FD
FB
F8
05
FA
FA
FA
F8
F3
F8
06
FC
F8
FF
F9
02
FC
FA
F8
03
01
FB
FF
FA
03
03
F9
FD
FE
F9
FC
FE
F7
F8
FF
FA
FE
06
FE
F9
FE
F8
05
FB
FE
FE
02
FC
F9
F3
F5
F9
07
FC
FE
FA
02
F4
FA
FE
F5
FD
FD
00
00
00
F9
F3
F7
00
F9
07
F4
F9
FE
03
FE
01
F8
FC
00
F5
FA
FC
FA
FF
FB
FC
06
F4
F8
FA
02
FB
FF
F6
00
FB
F6
FB
F3
FD
F4
FF
FA
00
00
05
FE
FA
FE
03
FC
00
01
10
14
18
15
0C
F2
0F
13
F9
E7
FA
F6
EB
0A
09
D8
EB
0B
F6
FC
08
0E
06
0D
0E
05
FA
12
EE
FA
20
FE
12
18
29
19
10
02
D6
00
F7
0D
0C
17
FE
F8
15
0E
1F
FE
09
FF
02
F7
03
07
09
0F
FC
10
07
16
F5
FF
D7
FD
F5
FE
16
08
F1
05
F4
09
FD
FF
F8
F8
05
04
02
FE
06
F8
FC
FA
04
00
01
01
05
FB
00
06
04
00
FF
FE
FC
FD
08
07
F9
FE
0C
FC
0D
0C
13
0C
0A
FA
F8
07
F9
04
18
04
FE
F6
FB
EF
04
06
21
F3
00
11
0C
09
12
F4
10
07
14
12
02
21
1D
F6
07
00
05
FA
E6
FF
DF
01
05
04
01
07
00
FB
05
FC
FA
03
FF
FA
02
FB
00
00
FA
FA
FE
F9
F9
FD
F2
FD
FB
0F
05
F6
00
02
08
0B
F9
F5
03
02
FD
FC
0F
02
F1
0E
02
FE
02
E8
EE
EB
0A
11
09
0A
1A
0E
06
19
E3
CB
03
07
DA
DF
17
CB
1B
15
D0
D0
0F
0F
E8
ED
17
15
FD
04
13
F3
E3
0E
F4
DF
01
0A
DB
E2
FB
D0
DA
24
05
BF
0A
14
13
20
20
F7
07
06
01
0B
F9
0F
FF
15
11
FB
F4
1D
F5
03
D2
0A
FA
F7
25
16
FD
FB
EA
FD
F7
05
FC
08
FC
01
08
05
0B
FE
05
08
F8
0A
FE
09
F3
04
00
02
FD
F5
FF
EB
F8
08
FD
0A
FE
F9
04
09
24
0D
FD
04
0F
FC
FE
EF
09
F8
0C
22
02
FF
E0
EE
03
06
07
05
FF
F2
18
0F
08
17
03
0C
04
01
04
F6
05
0D
0D
19
0E
FC
06
15
11
08
FE
22
0F
0A
0E
02
01
0A
FF
0B
13
20
05
FA
4C
F4
FB
FB
E9
FE
09
03
FA
02
06
01
08
FA
F6
08
00
02
09
04
01
10
F7
04
F6
06
FE
06
00
F9
F6
F5
0D
F7
FD
F2
F9
F9
F5
F6
03
F7
F6
F1
F4
FE
F6
F8
F8
FA
F9
FC
FB
FA
F0
FB
00
F2
F4
F5
00
10
F8
F5
01
03
F7
F8
F7
F9
07
04
F2
02
F8
F4
FF
02
F2
F4
05
FF
F8
03
FD
FB
F9
F9
00
FD
FA
F9
FC
FA
F2
EF
F6
FE
05
FD
03
F8
FC
F1
F9
FC
05
FA
FB
05
FB
FE
05
F8
FE
07
02
01
07
05
00
07
FA
05
FE
02
02
01
FB
08
FE
FC
FA
FD
03
05
F8
F7
FA
06
F3
FA
FF
F3
FF
F9
FD
04
F4
01
FB
06
F7
01
07
04
03
06
FA
03
FB
F4
F7
02
F6
0B
F7
FB
FB
02
FB
F8
01
F7
F2
F7
F2
04
FA
FF
04
04
00
05
FA
00
06
07
FD
FF
03
FD
F9
FE
06
FC
F8
05
F9
08
05
F9
04
04
06
01
FA
FC
00
FE
F3
FC
FE
FE
FC
F6
F8
FA
F2
F2
FF
F4
FE
F5
FA
FB
01
FF
F9
05
FE
F9
F6
FE
F5
01
FB
FE
11
05
FD
F5
FC
FF
FD
F6
01
FF
FD
F9
FE
00
10
06
F6
F6
F5
FF
00
03
01
00
F8
FC
FD
04
F7
01
F2
F6
FA
FA
F7
01
F9
F9
FC
F3
F4
04
FB
F1
08
F6
FC
FC
FB
FC
FF
F8
F3
FA
F6
F1
F7
FE
F9
FB
00
F9
03
02
02
FB
F5
FA
00
FC
F4
F6
00
F3
FF
FA
03
01
F6
00
FB
FC
F0
F6
F8
F9
F9
04
FD
FB
03
FA
F8
08
F6
F4
F3
03
F8
FA
00
F4
F9
F9
FE
F2
FB
FD
F7
02
F5
06
F7
F9
03
F6
08
10
FB
FD
FE
09
F7
F6
F8
F7
F5
FC
02
F5
F5
09
FE
04
F2
F6
F5
F5
F0
FC
FB
FF
FE
FA
FB
FE
02
FC
FB
FB
01
09
F4
F8
F1
F8
F2
FB
02
F5
FD
F2
F5
FC
FA
F8
FC
04
F4
FC
04
F6
F2
01
05
06
F1
FF
FB
FE
F2
F6
FE
00
01
FA
FA
02
08
0A
F9
04
F6
0F
33
FE
F3
29
05
23
F1
0E
0B
E9
FA
02
F6
EB
FB
04
F6
FC
0C
0E
FD
00
0F
1E
D6
2C
12
04
EC
05
11
FF
13
F3
03
0F
F5
09
06
0F
06
19
03
FF
00
0E
01
00
E7
F4
FD
1A
09
03
13
F2
00
F8
F6
12
F8
FE
06
FD
F0
02
07
0C
06
FA
04
04
FD
05
FB
FC
07
FF
F8
FA
FD
03
F8
FA
05
FC
02
FB
FC
04
FA
04
04
00
06
04
05
F4
F7
05
15
E9
0F
05
13
FA
F7
FD
FE
0C
0A
0E
01
05
FC
02
01
01
0E
0E
F5
00
0B
1B
FA
F5
0C
0F
00
02
FD
16
0C
F5
F3
04
F3
08
FB
03
05
FA
FA
FF
01
FC
FC
FE
01
03
FE
FD
07
FB
06
FA
F4
FE
FA
F2
F8
05
06
F8
F8
FE
FA
FF
FC
04
04
02
19
0B
FE
09
0A
F3
F9
F4
08
0E
F0
F4
09
F7
FE
F8
00
05
04
0C
06
03
FD
01
1D
04
C8
3C
09
0E
0C
07
11
F6
F3
0C
F0
D7
F6
00
DF
EA
FF
07
F6
06
0A
DB
16
11
F6
17
2B
0C
FE
17
1B
15
D6
17
FD
E5
FD
07
00
1B
03
04
00
FB
08
00
F6
07
F7
26
FD
01
0C
1B
F4
09
DB
0D
F3
E9
04
09
09
F2
F3
0F
FC
F8
03
FA
03
F9
0B
16
01
F7
FD
FC
FA
FE
FA
07
F9
FD
FB
F9
09
F4
0A
08
08
FA
F5
03
06
F2
F8
FD
28
F4
00
F1
02
FE
05
F8
0B
F4
EE
10
02
FD
FA
07
0C
0D
ED
0F
00
16
F1
2D
09
13
0D
06
14
F9
0B
F3
ED
14
F6
0C
00
E6
05
09
FC
08
06
1D
FC
FB
FB
FF
09
FC
F8
0E
F2
2F
F1
06
32
FB
F8
0B
F9
04
02
07
FF
FD
02
F8
FD
F8
03
F7
07
1B
08
02
04
0B
FD
09
EE
04
06
03
FA
FB
09
F9
0B
06
0F
0C
1C
08
09
EF
E6
08
1A
07
F6
FC
0F
F3
02
04
03
0F
0F
26
13
FA
08
00
05
0A
01
FB
FD
D1
17
DB
F1
05
26
04
00
02
DE
0E
FC
F2
FD
07
EE
17
F9
FE
FA
08
0F
00
01
F8
0C
05
07
F5
09
FB
FE
F4
F9
FF
FC
F3
09
01
0F
0F
0E
14
01
FE
01
FA
00
08
FC
FC
F9
03
06
04
FA
05
F9
FB
04
03
FA
03
FB
FE
02
FF
FC
FD
05
0C
0E
05
F3
08
03
FF
E9
06
0E
02
F5
0E
08
17
02
0A
F9
04
F8
FF
FC
F9
09
17
FF
06
0E
11
EC
D0
12
17
EA
06
FA
FA
20
EB
06
02
10
09
09
FC
F5
FE
01
FC
03
FE
07
FC
03
03
FF
FD
05
FA
FE
03
05
FA
08
01
F9
0A
03
FF
FB
FC
09
F9
0B
08
13
06
F1
00
E6
02
14
EB
00
07
FF
0C
00
03
FE
00
11
0F
11
F9
F9
05
09
FC
FE
01
FC
10
ED
12
49
38
0D
FE
1D
FA
F7
F8
07
09
F2
2C
21
05
34
28
0B
F8
10
10
0A
00
F8
E7
01
F0
DF
03
F4
E3
E0
EA
1A
F2
FF
1C
11
0A
04
FA
F5
0E
03
01
FD
02
09
F8
09
E7
16
18
03
E9
01
F4
FF
F7
00
0C
12
0B
05
21
0A
F9
04
FD
1B
08
F5
09
EB
02
04
0B
F2
FB
F6
22
08
0B
07
0B
0C
03
0D
F2
FC
09
0A
00
14
F5
FF
13
FC
03
EF
1E
05
FF
F5
F5
F9
F5
FA
0D
00
18
04
FE
FB
FF
FE
0F
01
F7
04
D9
13
DC
F6
05
0B
F8
F2
00
EA
0C
14
F5
00
0E
0B
1A
FB
04
0B
02
1C
F3
0E
0F
03
F0
02
05
F9
02
3B
F5
13
F9
E8
0F
0B
09
07
F5
0E
F9
F9
FD
09
0C
04
01
FF
08
04
F4
FF
05
F5
F6
FC
11
08
FE
06
02
19
11
09
06
FF
00
09
0A
0F
FE
30
1C
E7
06
29
F3
EA
1B
03
0D
F9
F2
FA
06
FE
02
06
01
0A
0B
03
E9
D2
E4
FA
E1
03
0E
F2
12
31
07
02
E0
E9
0A
F5
F9
0B
07
02
11
19
11
0B
05
00
08
FA
F8
1E
0C
01
1A
01
07
0B
EC
F9
F1
ED
F6
F3
04
05
0D
01
FB
14
FA
F9
F8
06
F8
05
00
FB
05
FE
06
F8
FE
FB
01
04
03
FE
FF
FD
FE
05
06
04
FD
FA
09
05
01
E6
FD
01
02
EB
14
08
F2
0E
FF
05
07
F3
FF
13
FF
10
04
0F
17
FB
FB
FD
F0
06
15
EA
F4
11
F9
10
FF
F4
15
0B
13
11
F7
07
08
ED
03
0F
07
FE
04
00
04
04
FC
FF
F8
04
00
FA
FC
FB
05
F9
00
0B
06
00
0C
FD
04
FC
FA
06
03
FB
FF
F1
FF
16
05
F9
0B
FD
11
02
E7
19
FB
0E
10
F1
0B
00
F9
03
0C
04
F3
FF
07
06
F7
0B
1D
F9
05
26
DF
F2
1B
1E
DA
FE
FF
22
0B
F1
ED
0A
FC
FB
F8
04
03
FF
08
0B
28
FA
F9
14
2A
C3
1B
22
DF
0F
E8
07
08
F3
00
E8
0B
0F
F7
06
FE
07
06
F8
F7
19
15
0F
ED
05
08
06
FC
EB
FC
E4
FD
F5
EF
04
16
FB
F9
20
FC
F8
FE
EA
FE
0D
01
F4
05
FB
17
FE
F0
12
F3
07
0B
F1
09
FF
F3
FF
04
1A
11
FD
0F
11
FE
FA
24
1B
07
0B
FF
11
FD
E3
FA
F3
E1
08
FA
04
16
0F
FD
02
18
FD
FA
EB
E4
06
EA
33
EE
FD
38
05
0E
00
ED
05
F4
07
EB
FD
09
06
13
17
00
14
0A
EB
ED
01
03
CE
F8
06
E6
F1
0D
0E
FC
12
FC
18
FE
EC
01
FC
0A
08
04
04
F6
00
09
F5
08
10
17
F8
05
05
0D
01
F0
F7
FF
FC
02
F6
0A
FA
06
02
0D
0E
15
09
F5
F2
FC
F1
EA
12
05
E2
E6
0A
0A
0D
15
00
0B
FC
E4
06
02
F8
F3
00
0F
16
E9
0A
0A
01
06
F4
14
19
F9
E8
00
1A
F0
2E
FC
2D
14
FA
F3
10
F9
EC
F9
0F
07
00
FD
FD
0D
09
FF
0C
FF
F8
01
19
1F
02
0F
15
FD
08
18
F5
FC
0A
2B
F8
0C
06
00
03
FA
FD
04
F8
FE
01
F9
01
03
FB
FD
03
06
08
03
03
07
01
FF
FF
00
02
01
F6
0E
11
FD
02
0C
02
E4
03
09
17
FD
07
F2
15
10
F8
0E
14
01
01
00
15
01
18
16
09
11
11
10
0B
06
09
02
F6
F9
EA
E4
F8
06
F8
F9
11
0B
F6
13
15
FE
08
02
04
05
07
02
06
06
05
04
02
FD
FC
06
FE
00
FD
09
01
FB
FD
FD
F9
FF
FB
0D
13
0F
03
06
13
04
0B
01
01
FE
0B
EC
E8
FA
FE
F7
04
10
FB
FF
1C
13
0B
19
12
FE
05
03
05
0A
D6
F5
FA
C3
EB
FD
07
2B
ED
06
2E
21
DD
05
1C
E3
03
FA
F6
01
06
DA
F8
07
E4
F4
29
06
08
2F
0C
2A
38
CB
06
13
EE
F5
0C
14
07
02
12
15
0B
19
EE
FE
02
EA
FB
F8
F9
0D
05
08
30
03
0B
26
F1
F7
04
15
27
12
0A
0F
13
04
06
04
14
03
F7
F8
FA
0C
11
E2
FC
FE
09
FC
F2
0E
0F
FC
F9
13
11
0C
07
13
0A
ED
09
0E
07
01
FF
15
03
03
1D
0A
F9
0C
FD
F6
0E
FF
14
1B
1A
F9
0F
09
01
01
E6
19
1D
E2
EB
FC
10
11
15
06
18
F7
FA
EB
FA
EF
F3
F6
09
FF
1F
16
F9
09
4B
0B
05
0B
23
F6
F7
E9
F9
FC
C7
04
05
FE
23
0B
F9
0E
0E
16
FA
F8
07
02
FD
FA
05
FD
F2
F5
07
0B
0E
FA
16
0D
00
F6
F7
08
0C
0B
F9
0E
10
FF
08
0A
26
DB
D6
14
20
D8
17
18
F0
0E
FB
09
0C
07
FF
F7
FF
01
04
14
FD
DC
FF
2D
14
1F
64
F3
F0
1A
BE
F7
02
F5
E8
DC
20
0E
FB
03
16
10
04
FF
03
10
FA
E9
10
22
FB
00
12
0B
F2
F6
F8
F3
08
0F
EF
0D
0D
14
FD
03
0C
14
07
07
03
FC
FF
04
03
FC
FA
F8
FB
03
00
F8
FE
01
FC
00
04
07
FD
06
04
FB
02
04
08
00
F5
0B
13
18
0F
10
F3
05
D8
EE
07
ED
10
ED
FA
FF
EE
1A
02
0E
02
0F
02
07
F9
0C
0F
F1
10
06
F8
0C
12
12
0C
24
00
F9
06
07
FC
FE
F2
F3
11
0F
F4
00
06
06
FA
FD
FE
FE
FA
05
07
03
08
08
07
07
FE
07
FE
07
03
FC
00
EF
07
00
FC
FA
0C
0F
F8
01
0E
F0
16
FA
04
0E
0E
F1
FD
15
13
F6
F4
F2
E1
0D
02
E2
06
0A
0E
07
02
FD
12
08
0D
F7
F7
24
17
0F
0A
1F
0B
11
25
10
EE
08
FD
EB
05
FD
0B
02
05
0E
C3
F5
41
D4
CE
0C
1A
E7
02
30
FD
28
0B
E5
EF
0B
0B
F6
07
13
03
00
0C
1F
FF
0C
14
06
F4
ED
FB
F5
0C
1B
11
14
03
15
02
01
0B
19
25
01
10
05
16
12
F7
0C
08
EC
0B
06
0E
FB
15
DF
F3
1A
F7
FD
F0
FB
E9
05
FF
EB
14
09
0B
09
14
F6
0C
1A
F8
F3
F2
F2
F9
02
25
FB
10
00
F6
00
FF
03
52
25
08
F5
FE
22
0E
28
F2
E5
13
E2
C9
0B
FB
E4
F1
F3
0F
04
06
DA
FC
F7
09
F8
F6
05
1B
14
11
02
37
2C
04
05
39
0C
02
21
FC
09
04
09
04
08
19
06
04
13
12
FC
01
F4
11
0F
01
FC
10
06
03
FB
0D
F4
09
EA
F5
11
FF
0D
EB
FE
F6
10
01
06
06
F8
0D
FC
F7
FE
01
06
19
2D
1C
16
0D
D8
FB
F2
F0
07
0C
1E
0F
0C
17
1C
07
1C
09
FF
0E
18
FD
00
F8
F4
0B
EB
F3
16
35
01
EB
DC
FE
FF
03
10
FF
01
FC
04
07
03
02
02
FF
01
04
F2
11
FE
FF
FF
F9
0C
FA
F2
03
FD
1D
0A
08
FD
00
FD
04
FA
FB
FD
07
05
00
F9
00
FF
00
04
FA
00
03
FC
01
00
FE
01
02
FA
02
04
FF
1B
04
FE
FC
03
FF
06
FF
FC
03
F8
F0
0C
04
09
FE
0F
FF
FB
05
01
00
02
0E
08
00
09
05
04
FF
FE
08
FD
DD
03
F2
DC
0E
F1
FE
F9
0A
06
11
19
03
E9
15
03
02
FE
07
FF
04
04
06
07
FF
06
F7
FC
01
F9
09
03
01
03
01
05
07
05
06
00
05
08
0B
04
08
F6
06
F8
FF
EB
F9
FF
ED
13
F6
FC
0D
02
13
15
23
F9
01
09
FC
01
00
00
05
00
EE
03
03
14
0A
FA
14
21
FC
19
03
F5
FD
1C
34
08
01
18
00
00
1B
0F
00
DF
17
EF
03
07
10
05
12
0D
04
F6
15
F5
EC
0B
0B
02
FC
03
08
07
0D
07
FB
12
03
F5
F8
FF
15
03
08
0A
03
09
FF
07
02
FF
23
21
01
01
E7
F6
04
0A
03
0D
12
09
02
F8
01
F4
F6
08
F4
0A
FD
F8
08
13
1E
14
14
F5
F8
FD
0C
0C
03
04
11
09
F8
FA
E6
07
F2
F5
04
EE
0D
0B
04
0A
01
0B
09
0C
D5
F6
F4
14
FF
FE
11
0B
FF
F1
FB
01
12
EE
EF
F6
0B
F5
F2
E6
0B
15
10
1C
02
11
09
08
FA
E7
01
0C
1B
F1
07
13
EB
FF
2A
00
F5
FE
C1
0A
00
0F
06
0A
04
F2
0B
08
02
FC
02
05
0C
06
05
F6
FF
01
FA
F4
FA
F7
FB
FB
05
0F
20
13
14
F7
FE
06
16
06
12
14
E3
CD
15
F4
D9
19
F8
C9
E8
02
09
EF
F6
11
0D
18
F5
FD
00
06
0B
24
12
17
EC
FA
D8
F1
0E
F0
20
FA
19
EF
F1
1C
13
DB
E7
19
E2
01
13
FB
11
05
12
F7
0E
E3
F0
07
0A
E8
0E
FE
EC
1F
08
F1
0A
E9
17
15
03
FD
FE
FA
F7
08
06
FD
FD
05
00
FA
FB
04
04
06
05
F8
FA
FA
06
FE
FB
FF
FB
05
FF
FA
01
FF
00
1D
07
05
F3
05
02
FB
03
E7
14
0A
0C
14
E7
1C
0B
04
F3
07
FC
FF
01
F1
0A
14
32
11
FB
06
18
EA
0F
14
EB
FE
03
06
ED
FF
08
F7
F3
0A
05
F9
F2
FB
F6
04
00
F9
07
F8
05
01
FB
FF
01
FE
FE
06
F9
00
0B
FC
F8
0A
01
01
02
FA
08
06
15
0E
0F
F6
E7
11
E2
00
12
FA
FA
FA
16
F5
F5
00
F6
EB
0D
FC
FE
FC
EB
05
16
09
0C
06
03
1A
FB
18
07
1D
11
CE
F0
F2
04
EB
DB
00
06
FC
F1
13
1D
1D
17
0A
F3
13
0C
C4
F4
0E
AD
F1
39
EB
BE
F8
E9
E5
11
E8
09
08
07
04
09
09
0E
08
0D
05
01
F4
EF
03
02
D8
08
13
C3
1C
00
EA
18
E6
0A
FE
0E
FC
06
0B
11
01
06
17
18
FA
F4
06
FA
FD
02
F7
ED
18
01
16
05
10
F9
EA
0C
05
03
F7
ED
06
0E
06
00
0A
DD
EC
01
FB
FC
18
00
F8
27
04
EF
0F
F2
12
05
04
04
FE
16
F7
FA
1E
0A
0D
FE
D3
F4
11
E0
E7
1C
F2
FE
F2
F6
0D
1E
F8
EB
14
FA
FB
00
FC
04
0A
24
1C
07
1C
49
F5
FB
34
09
FF
28
F9
05
0C
FA
1B
02
EF
0B
F5
05
0F
01
08
14
FF
17
F6
EE
09
05
E6
EB
FD
FC
17
00
08
04
06
F7
EB
11
0B
0A
F5
F7
FE
08
FF
09
FA
03
F1
F4
16
F7
F5
01
19
F3
F5
01
FC
FC
09
FC
F6
10
F8
06
12
08
E2
10
15
20
1F
4C
EB
10
09
06
16
0D
17
D3
FF
06
0B
E3
04
21
11
F6
05
15
0B
FB
01
FB
13
EF
05
15
01
03
07
E2
E0
F3
E1
F0
F1
02
ED
F4
18
09
09
F5
F3
F9
04
03
FB
FB
01
02
01
04
00
07
FC
02
FD
05
FC
F8
FD
FC
00
FD
03
06
05
F5
F2
06
F0
12
1D
17
0F
0B
FC
0E
EF
F2
FD
01
15
F8
FF
F4
07
13
FA
F6
05
F0
FA
F2
FD
F8
EB
F1
15
04
0D
21
0D
24
14
25
FB
F8
15
E9
04
0C
FF
09
FF
F6
FB
07
06
00
FD
01
FC
04
FA
FB
03
FF
09
FE
08
F6
08
FB
03
02
FF
00
F4
06
FD
F4
05
05
00
05
F9
14
01
08
0F
17
10
FC
0E
F9
FC
1F
EB
F7
0D
F5
FF
00
FC
FA
F9
0C
02
02
F8
07
13
25
1C
EE
FE
BF
01
E1
16
12
09
04
FA
04
FB
F2
FA
04
FE
0A
EF
10
0C
F0
03
FC
E2
D5
08
FE
CE
EC
07
D6
FE
F0
E7
F4
12
FE
FE
0D
03
FB
07
FD
03
FE
07
0D
15
FD
FD
DE
F7
F7
FC
06
F8
0C
EE
01
17
F0
FA
E7
0B
F9
07
13
08
0E
0E
0E
0B
0C
03
10
0F
00
09
F2
FE
0F
0A
07
11
FF
FC
01
03
01
F1
02
F2
17
F6
02
0A
FB
FA
06
D8
05
03
F2
0D
01
17
F0
F9
1B
15
1C
FF
FD
E2
16
15
12
08
01
E9
0A
EE
E6
08
08
F6
E2
FB
EC
FA
06
04
09
10
FB
09
13
ED
10
0D
0C
EA
12
0D
03
0D
10
13
0E
28
FE
1A
24
FC
0C
F6
FE
12
F9
FA
06
0C
F3
04
FE
09
0B
07
07
12
0B
FC
08
E9
FB
06
FF
FC
02
0A
06
11
F9
F0
05
0B
05
17
03
FF
F9
29
05
01
0E
15
0A
05
1A
E8
04
27
09
06
06
F8
FA
13
FD
FF
07
ED
F0
FB
0D
0E
FA
14
FE
12
FF
F5
F8
30
4A
F6
0E
F8
0E
F9
FD
05
08
F9
FD
FF
FA
06
0B
0E
09
04
F4
15
03
11
03
E8
03
06
0E
F0
FA
F9
F8
10
08
EC
06
0B
05
01
04
FE
02
FB
FD
01
06
FA
02
05
03
01
02
FA
FC
02
00
FC
05
FF
FE
00
02
FC
FD
0B
06
03
FD
F7
19
1C
00
F9
EE
09
05
F7
FE
01
F3
F2
FF
07
0A
13
14
F3
F6
FB
00
F4
07
09
FE
F6
E8
0E
01
FF
FC
07
E8
0C
FC
FA
02
2B
12
05
28
F9
04
FD
07
03
06
FD
06
08
F9
00
07
F7
FD
FF
0E
07
03
03
05
F9
F9
0A
00
07
DF
FD
ED
F3
02
17
FF
F5
09
FD
05
04
FD
F8
01
FD
03
03
01
FF
1C
21
03
0A
09
01
02
FE
07
13
03
03
0A
E4
1D
0D
FF
15
0D
17
34
0F
27
12
06
07
01
2A
08
16
F9
00
03
04
33
12
11
11
1D
02
0A
DF
11
13
F7
02
02
0F
E8
04
04
EB
06
01
FF
0B
01
06
07
FC
EE
2A
FA
FB
11
F1
0C
F9
0A
EF
03
09
EE
04
01
E7
14
07
F1
F3
F0
EF
05
15
FD
05
0F
05
0D
07
09
F3
02
EE
FE
0F
00
FC
1E
1B
17
19
02
FD
03
F7
0F
14
00
E7
19
F1
F9
0B
F4
03
F3
0F
FD
F9
0A
01
FC
11
30
1B
08
F1
F2
02
01
05
F8
FF
FD
13
07
F6
12
02
07
05
EB
F1
05
EF
F5
0A
0D
FA
FB
0E
C4
ED
FA
E0
EB
03
0E
F3
FE
FB
E3
09
03
10
FA
0F
04
21
1A
07
0D
15
06
10
F2
02
F6
02
08
FF
F6
0D
21
FD
FF
06
07
FD
00
EF
FA
0A
F6
F7
18
04
09
0B
07
0D
FF
08
DC
0B
25
F3
E0
40
04
ED
08
D9
05
FB
01
06
FB
0A
F4
0A
FE
07
FC
2B
23
04
0F
0F
D1
FA
1B
F5
EE
10
09
1F
1F
FC
F4
EE
02
09
E4
01
04
05
FA
03
07
09
08
06
F3
EF
07
EC
2B
FA
01
0A
07
FF
07
03
03
F5
12
F9
F5
F2
F9
0A
07
03
FF
00
04
00
FE
06
08
F8
FA
F7
09
FE
07
05
FB
FB
06
04
02
02
03
FC
F9
0D
07
FF
0C
F5
F9
F3
18
FE
FF
0C
F1
14
F4
15
FD
0D
02
03
02
01
00
FA
03
FE
09
0C
F1
F5
0C
FB
08
F7
D2
03
00
DB
FC
0D
EB
07
03
FD
11
FF
EC
F1
17
FD
00
FF
FB
FB
FD
FC
F8
02
F9
FF
FF
FF
FC
07
01
FA
FD
F7
FF
FC
F9
0B
FE
05
04
FE
F8
F7
FD
FA
F3
FA
FD
F6
08
14
E4
00
07
FA
0E
FC
FD
0D
0E
F3
00
19
03
0B
EE
FB
0F
F8
03
0C
F3
51
1D
EA
01
14
0B
F5
FD
FE
F8
1A
17
0C
25
30
07
0E
FF
F7
FB
D1
31
10
D3
1D
35
F9
CD
20
F1
E5
F6
D8
07
0C
0B
06
FD
0E
F9
09
05
FC
06
06
F4
EC
EC
21
16
FD
F9
15
0B
FB
F5
07
05
FD
0C
03
02
EA
D9
0A
05
01
03
FD
FA
FF
FE
09
09
F8
FF
12
EF
16
F8
EA
00
02
0D
05
0A
F6
F1
FF
FB
F7
F9
04
0B
FB
EE
EE
0C
FF
F4
FE
0C
F8
EF
15
00
0B
08
02
05
06
EF
F9
00
21
FC
13
14
F8
DA
0C
FB
F4
26
03
09
0D
FE
02
E3
F9
02
10
03
FF
FA
05
F6
03
02
0A
F6
FD
05
F6
02
37
E6
EB
22
04
FF
08
1A
0E
17
0E
FC
01
08
F5
FF
06
04
FF
00
F5
FF
FB
F6
0B
14
08
F7
08
FB
0F
FD
F3
0E
FD
11
08
04
F5
F4
04
FC
06
09
FF
FC
12
EC
0F
18
13
FE
E3
EE
0F
FF
F6
08
02
F5
09
E8
0C
0C
F7
FF
0D
0A
FC
09
F7
F6
EB
0E
15
FF
1F
0F
03
B9
03
01
0E
0D
0E
E4
D1
03
0F
E4
FE
10
FE
02
0D
06
FE
1C
02
15
0B
D6
04
0B
F9
1E
FF
03
0F
08
E2
FD
09
F8
F5
06
01
FA
00
01
00
05
F8
FE
FA
FC
FF
01
00
07
FC
FB
01
FA
FB
05
FA
07
FC
04
FF
F7
00
15
03
0D
0C
F5
02
18
01
FD
0A
02
09
0D
FF
07
10
DE
05
0D
FE
F4
09
08
02
04
00
EF
F9
0E
12
09
06
00
04
01
EF
EF
03
00
07
0B
E2
0E
03
EA
FA
02
FA
00
04
FF
06
FD
06
00
06
03
03
FF
FA
04
02
FF
FC
01
F9
FB
00
08
06
0F
11
FF
07
FF
03
F9
06
09
10
0D
12
02
05
FC
F6
FE
06
0A
FF
EA
04
09
FF
0B
00
F8
FB
03
06
07
0C
09
0C
FD
EA
E9
0A
FA
E5
ED
EE
F5
DC
FC
F8
F2
17
01
FB
0B
F7
02
25
08
0F
1D
1A
EB
07
EA
09
E9
EF
D6
06
05
F5
17
E8
0F
19
DA
FE
FA
FA
05
16
0F
09
FA
00
0B
1B
EC
EF
06
F9
0A
01
FC
04
FE
DA
06
02
D9
00
10
0E
0A
08
FE
06
F9
0C
0F
17
09
02
F3
1A
00
F8
FF
05
12
01
E9
09
0E
F4
09
05
04
0C
19
0A
0B
FD
EB
12
20
E4
07
0A
F2
11
F8
08
0C
FE
E8
FF
05
F6
FB
07
02
07
FE
FF
FE
F2
16
0F
04
03
FE
15
F6
06
0C
0E
00
FB
F1
D8
14
0A
E9
FF
14
F6
0D
FA
D2
0A
08
0A
01
0C
19
03
11
04
FA
FD
06
E2
FD
F8
F9
01
FF
02
06
05
FE
01
03
0F
FB
0C
07
0E
FC
FE
00
0F
07
01
0B
FD
14
F7
F5
0D
0D
F4
F8
FF
F9
03
00
02
00
02
FF
F7
F7
00
FB
09
FF
03
FF
FB
F9
01
FE
00
05
F9
01
FC
04
03
FD
06
07
05
02
08
07
F8
08
09
01
06
08
FF
04
FB
FB
FB
08
06
07
F8
00
FD
F9
06
FD
03
FF
F9
FF
02
02
05
FA
FF
05
06
00
FE
03
04
FD
F9
01
00
00
05
F9
F9
FF
07
01
05
FD
04
FA
04
01
04
02
04
FC
FD
FB
FF
F9
02
08
05
03
09
FC
FE
02
FB
05
01
FD
05
01
06
03
06
FF
FB
06
03
04
F7
04
FD
02
FF
02
FA
06
06
06
F9
FB
FC
00
08
06
FD
06
08
06
FB
FC
FF
04
04
F8
06
08
01
FC
01
07
FD
02
FC
FF
07
00
FE
05
06
04
FD
04
FA
06
07
05
F9
F9
02
07
F9
00
03
FC
FC
04
F8
05
FF
04
02
FE
05
FF
FE
F9
01
FB
07
FD
03
FE
FA
00
FA
04
05
00
02
F9
FA
01
F9
FB
01
FF
F8
07
03
04
F8
FD
FD
FC
F9
03
FF
FF
FF
02
03
FA
FC
FD
FB
00
03
FD
03
FB
FD
FD
05
00
F9
05
06
02
03
FF
FE
04
FD
00
09
02
FF
F7
01
F8
F7
FF
F9
FC
03
00
06
FA
00
F8
FB
04
FE
02
06
FC
FB
F7
FA
F9
00
F9
01
F8
04
06
F9
03
07
05
09
FC
FE
F8
02
FD
08
FD
03
02
FC
07
FC
FF
FF
FA
05
FA
06
01
00
F9
03
F7
FC
06
FD
FB
FA
01
01
FC
05
FB
02
02
FB
FD
F7
03
FB
04
00
FE
00
02
00
FE
06
FF
02
04
FE
FD
03
02
FF
07
F9
01
F8
FE
04
00
FF
FB
03
04
00
F7
01
FB
F8
FD
FA
FC
03
00
04
FB
04
FA
F9
FE
FB
06
02
04
FF
FC
FE
05
02
03
02
FB
F7
06
FE
03
04
FC
FE
07
F8
04
FB
09
FF
06
FB
F7
03
F9
F7
F4
F7
07
FD
FB
FF
03
FC
F5
FA
F9
F6
F6
FA
F5
01
F6
FE
02
03
FF
F6
FE
01
F5
FC
F6
FC
00
04
F5
F8
F7
02
FD
FD
F8
F4
01
F5
05
02
FD
04
F9
FF
FE
02
01
FE
F9
FE
FD
02
FE
F7
F8
F4
FB
FD
FB
02
01
FB
FF
07
00
03
F8
F9
FF
FC
FD
05
07
01
07
01
FA
F9
07
FE
06
F8
01
01
F9
FB
FF
07
FA
04
00
07
FA
01
00
FD
03
FA
F7
FB
FC
01
03
FE
FC
FF
F7
F7
F7
FC
F5
FC
01
FD
F4
F6
F8
00
F9
F8
FF
FB
F3
FD
FD
02
FC
FA
F7
F7
FF
F9
FC
F6
FA
F6
FD
F6
00
00
FD
03
F6
F9
FD
06
FC
03
07
FB
F9
06
07
05
FC
03
07
04
FF
03
00
FB
FD
FF
FC
FF
04
05
F4
F9
FB
FF
F4
FE
F7
02
FA
01
FA
F3
02
03
FC
F8
01
02
FF
01
03
01
FC
F7
FE
03
02
F7
FB
FF
F6
FE
FF
F7
00
F9
FA
FB
FB
F9
FB
FA
03
05
F9
FE
FF
F8
FD
F5
F5
F6
F7
F5
F8
01
F5
F5
FA
FF
08
F7
FD
F3
F9
FB
FF
F5
03
F5
FF
F6
FC
FF
00
FB
00
F8
01
FA
FF
FF
F5
FE
F5
02
F6
03
02
03
F6
00
00
FE
07
02
04
FA
F3
FE
FD
F6
FD
03
F7
F9
FD
FC
F4
FB
F7
02
F5
FB
F8
04
FC
FB
00
03
FC
F9
FC
F9
FF
F5
00
F6
FA
06
FF
F8
F7
F6
FF
F9
07
FD
F7
01
03
FB
F9
FD
FB
00
F8
FA
F4
F9
00
FF
F4
07
00
F9
01
FB
FE
F8
FF
FF
FE
FA
F5
01
F8
F4
F9
F8
02
F4
FD
F4
00
F6
F6
FF
FB
FC
FA
FB
06
01
01
F7
FE
F8
03
02
F7
02
FD
F5
F7
FE
F3
F4
03
F6
F3
FA
F5
FB
F4
FE
F5
F7
01
03
FC
FB
01
FB
00
F5
FB
02
00
FA
F0
F3
E9
F0
EC
0C
10
FA
0A
2F
10
08
FB
0F
F1
FD
E7
DC
FF
13
F1
00
11
0F
08
15
03
E4
EE
FC
C7
15
05
F7
E0
CC
20
F3
1C
07
FA
3A
F6
F8
F3
E4
00
17
FD
FB
0B
08
F7
FA
0D
03
02
F8
02
FE
F9
0A
FF
06
06
0C
07
07
09
F1
F0
37
F4
04
FA
FF
FE
01
FB
FC
FD
05
00
FE
F9
FA
01
03
F9
03
FB
04
02
FD
F9
02
FD
FC
FC
09
10
F8
06
F5
FD
FA
ED
EA
05
02
21
03
FB
FF
11
1C
05
09
15
00
05
F6
0C
FB
0A
0B
FB
03
02
0F
04
F8
F2
EB
FF
E8
14
EC
FF
F8
03
01
21
05
01
03
0C
03
07
F8
FD
07
FF
03
07
FB
FA
05
FB
04
08
03
0A
FA
F8
F5
FA
02
F8
10
08
05
13
11
11
05
08
00
06
02
F9
F1
EA
FF
F0
16
F7
EE
F3
05
0D
14
0E
FE
1E
18
01
FD
05
FA
F9
FC
FB
F4
F0
0C
EE
E5
F7
1E
FE
F7
D7
E6
F3
05
EF
EC
08
E7
F9
ED
01
F8
EC
FF
24
FB
E8
1C
19
02
ED
40
07
19
00
CB
01
0E
FA
DF
05
2E
FA
06
07
05
02
FF
01
02
F3
EB
FE
E2
0C
0F
09
FF
F0
22
0F
11
FB
F2
FA
0B
D4
FB
03
09
04
FB
04
06
08
03
03
FC
F7
04
E8
11
FC
F4
0E
06
14
13
1F
F8
FF
0C
07
04
0B
0E
F6
01
06
EE
FC
08
E6
11
0C
09
18
F2
07
07
0C
F8
07
F6
C5
EC
0F
0F
FF
F2
F3
F7
08
20
08
0F
01
F0
02
14
10
FA
17
01
04
FA
F2
FE
FC
0A
07
FA
FA
F0
FF
F6
DB
FA
01
EB
03
EA
F3
FF
FA
F9
D2
E9
07
ED
F5
FE
FE
EF
0C
08
08
07
02
01
0A
05
FE
F7
FC
F8
EB
0A
F9
01
FA
02
12
FF
0C
0E
11
FF
08
04
07
0A
14
10
06
F1
1C
EE
17
1F
11
0E
DD
F9
09
EE
0F
12
04
FE
1E
FC
07
FB
F5
03
18
2B
F8
2E
12
FB
F7
17
DF
DF
E4
0C
0C
EB
0C
F3
ED
18
1E
25
FA
F6
FC
0E
F6
06
0C
08
E6
F2
E9
01
0C
FE
0B
CB
08
06
E9
0C
03
02
09
0E
05
06
0E
F6
05
FA
07
00
FF
FC
FA
06
FC
FD
06
08
FA
00
07
FC
04
F9
05
FF
FC
FB
07
08
06
08
06
0C
06
0F
F6
F4
FE
F8
E7
EC
00
EB
04
EF
FA
FF
F6
0E
FD
01
FF
09
F1
01
0D
06
FD
EA
15
18
F1
07
0E
F3
06
0A
FE
0A
16
F6
F9
0B
E5
0A
04
EE
EC
07
FC
05
03
03
04
07
F8
FC
FA
06
05
FF
06
F9
F7
01
F9
F8
02
00
06
F6
03
03
F2
04
01
F9
FC
03
07
EE
04
FB
EE
02
F5
01
FF
1E
06
F1
04
EF
08
00
E7
CE
08
01
FA
04
F7
FB
12
F5
EF
43
1A
31
45
21
16
15
0B
11
0D
FE
16
09
F5
03
0A
08
0E
01
11
E2
FB
F9
12
08
0C
E5
FE
E7
06
21
E5
35
04
E3
20
23
FB
F2
05
08
F0
F9
02
06
02
FC
F1
12
04
00
19
06
FA
1B
F5
0F
FE
FC
09
0E
0C
F6
16
F8
FF
07
0D
FC
04
FB
02
F7
12
F0
F9
FD
FC
EE
F1
20
EC
F4
07
F2
F2
FB
F6
E0
12
FA
FE
06
06
EE
F4
E9
F2
F7
EE
FE
E6
F6
1A
F3
23
FA
E8
0D
06
04
33
0E
F3
01
06
22
F0
21
E5
FD
FA
FD
ED
F5
F0
E2
FB
FE
EF
F6
00
FF
12
01
FC
FD
F3
07
21
24
06
11
48
0D
08
26
27
07
EF
1E
F1
03
27
0E
F3
1C
14
F8
06
13
FF
EE
05
FB
11
07
FD
EC
FF
0A
0E
F2
FA
EA
06
F4
F3
0A
FD
F9
FC
10
F8
01
01
F3
00
FF
F9
05
05
FE
04
F7
05
01
FB
F9
FD
03
06
FF
FB
F8
04
F9
06
FF
05
01
04
04
04
03
01
05
06
05
FD
04
FF
FA
FB
F7
04
FC
02
06
FA
FA
06
FB
03
01
06
FE
F8
FC
FC
00
FC
FF
06
FF
03
04
FB
04
00
F8
05
F9
FC
F8
F8
01
FB
F7
F8
03
05
FC
02
05
FA
06
FF
00
01
03
FF
00
FD
01
03
03
FE
FB
FE
04
FD
FA
FA
FF
06
FC
F9
03
FE
FB
03
02
03
F8
06
F8
FE
FD
F9
FC
FB
00
FB
FB
02
F7
F9
FF
FA
00
FA
FA
FF
FC
02
07
00
FB
FE
FB
04
FF
03
FB
F9
01
04
F7
FE
F7
FE
00
05
01
06
FF
07
02
01
FE
FF
FA
F9
FF
01
FE
FC
05
FF
FD
07
03
FD
06
FC
04
F8
FE
01
FE
02
FE
04
F8
FC
FF
F9
FF
00
FE
F7
FD
06
FE
06
04
01
FA
FA
02
08
FA
FA
FD
01
FD
F7
04
06
F8
06
07
FD
FD
08
01
FA
05
FA
FA
09
FE
08
FF
01
00
FA
F7
F9
05
06
02
08
FF
FC
04
05
FA
FD
FD
01
03
F7
FB
FB
07
F7
02
FB
FF
FC
FE
FD
F7
FE
F7
02
F8
FD
F9
04
F7
05
FA
F8
F9
04
07
F7
F7
FA
FC
01
FC
05
01
F8
08
FE
FB
04
FF
FC
04
FA
FB
05
FC
05
01
FB
FC
FA
FA
FA
00
03
F9
FE
FE
00
FB
03
FF
04
00
FD
05
F7
FE
FA
FE
03
FC
FF
FF
FE
02
FA
FC
FA
F7
FB
07
FD
05
00
02
06
03
F8
FC
FA
F8
F8
04
01
03
01
F7
02
FD
FF
F9
04
03
FD
FE
07
00
00
FC
F9
FF
FE
00
F7
FF
00
02
03
FC
00
FD
F8
FD
01
05
FD
FC
01
01
FD
FB
03
FC
FD
FD
F9
06
FC
00
02
01
F9
F7
03
05
F9
00
F7
05
06
F8
FA
FF
02
F8
FD
F6
F7
F9
F3
FC
F4
F5
02
00
F2
F9
F5
FE
FF
F6
F3
F5
F6
00
01
F5
FA
01
FD
F2
04
03
F7
01
FC
05
F9
F5
FD
F7
F9
F8
FE
03
FA
F9
F1
FC
03
03
03
03
07
F6
FB
F6
FC
06
F7
F8
F7
01
F3
F9
00
F2
FE
F3
F2
00
04
F9
FB
FB
F7
02
06
07
FB
05
00
05
06
FA
FC
02
F8
03
F9
FD
FD
05
FD
FE
00
FE
01
F8
04
06
06
06
F7
F4
FD
02
F6
03
FF
06
F7
F7
06
F7
FB
03
05
F3
04
FF
FC
FF
FE
05
FF
F5
06
F4
F5
F4
F4
02
F5
FB
09
FB
F9
F3
F1
FD
FD
FB
00
FF
FA
00
03
09
00
FE
FA
04
F9
02
01
02
FB
03
06
01
07
06
06
05
05
04
FE
FF
FC
FB
04
05
FF
08
FD
07
FB
01
EE
04
01
F3
00
FA
F4
FF
F9
FC
F7
FC
F5
00
FC
FA
FF
FB
05
F2
F8
F9
FD
01
03
F9
00
F9
FD
F2
FB
00
00
FD
FC
FC
F9
FE
00
F9
FB
EE
FE
F9
F0
01
FB
FE
FB
05
F3
F7
F2
FA
FF
FF
F3
F1
FD
00
FF
F7
F9
01
FA
F8
F7
FD
02
FA
01
FE
F4
F7
F8
F6
FC
FF
FA
F1
F3
F4
F9
F8
FA
FC
F7
FD
FC
FC
FE
02
FB
FC
FC
09
F8
05
F0
FA
FF
FA
FE
F4
FC
FC
F6
F6
F7
FE
FE
F1
01
FA
02
FB
01
FB
FE
02
FC
FB
00
FF
F9
FE
F5
F7
FF
FB
F4
F8
F1
F6
F6
F6
F5
07
F5
FE
FE
FC
FF
02
06
F1
06
04
FA
FC
FE
FB
00
F8
F5
F5
FD
F4
FF
01
F8
00
F7
F5
F9
FD
F5
FD
FE
00
F9
FD
FE
FE
F8
F3
F7
F8
FB
FF
FB
F0
F8
F7
FE
FD
00
F8
F8
FD
F2
FB
F9
03
00
F5
FB
04
F8
F9
FC
FF
FF
02
F7
FC
F7
F8
F2
F9
03
FD
F6
FF
04
03
06
06
F4
FD
FD
F3
0C
16
EB
03
28
F5
01
24
0F
15
FC
34
F5
E6
0E
FE
F6
02
08
0A
0B
E1
E3
D8
FF
F1
FA
F6
EB
17
EF
E7
10
FC
4B
EB
18
FE
FC
EA
02
FF
02
03
FE
05
F8
F7
F9
FC
18
06
05
0B
FF
03
FF
EC
03
07
0E
F7
FE
10
F3
F9
0B
18
04
05
FA
FD
FA
FE
05
02
04
08
06
06
FD
04
05
FD
F9
F9
04
FC
09
02
06
F9
04
05
0C
04
F4
01
FE
04
FF
02
ED
14
F5
F4
0F
01
08
F6
FC
05
00
F0
08
03
0B
19
19
F8
FB
F9
0C
14
F1
F1
F9
01
F5
02
F0
FF
02
E2
E9
03
FB
05
11
1C
22
1C
30
FA
06
FB
08
FE
FA
FE
01
02
02
FC
FE
09
FB
05
03
FA
FC
01
05
00
04
08
06
FE
F8
05
FF
05
0D
10
F0
F6
14
02
F1
FB
08
EF
EC
F9
FC
01
03
0F
08
22
28
18
F8
07
04
07
FD
10
04
04
1B
F2
00
F6
FF
09
F2
30
17
F3
3D
39
F0
FC
0E
03
F4
F6
06
0E
FD
16
19
F6
12
1B
E3
14
47
0C
19
22
32
CF
EE
1E
DF
F1
0D
F8
FA
08
FF
06
F1
0D
1C
03
06
F0
04
01
0C
E0
FC
0A
22
01
FC
2A
EC
05
05
18
25
0E
EF
FD
F9
FB
00
08
F8
00
07
02
08
F8
15
EA
F9
F9
07
0E
FF
0E
1E
1A
1B
29
0C
12
06
FA
04
20
00
FD
F8
FD
F9
0F
E1
06
17
FD
02
00
FD
F9
03
01
28
1C
0D
F3
F7
DA
F8
FA
05
E5
00
26
F9
01
02
07
05
F6
1E
E1
FC
E3
F7
08
12
08
01
FF
E1
E2
03
F3
EC
08
09
D9
17
F4
FD
EC
09
02
BA
07
02
FA
21
12
FF
0A
0A
08
FF
F7
F9
04
14
11
F1
0B
14
02
05
03
11
E9
07
00
FF
06
F4
F9
16
1C
12
18
FE
FE
05
02
30
ED
FF
0C
03
F7
FC
12
F7
13
06
F7
02
0B
00
07
1B
FA
00
03
F1
18
0D
02
0A
FE
11
FA
EF
FE
DD
F6
F8
CB
D4
0A
11
01
FC
06
02
02
F8
F0
F2
01
01
12
08
FE
04
F8
FF
FC
07
F5
0B
21
0B
0B
DB
11
04
FF
01
01
FA
1D
DD
00
02
05
FA
F9
FD
06
FB
02
01
06
FA
08
05
07
00
FE
F8
03
FA
F9
FF
F9
FA
05
08
04
18
FC
F2
08
ED
00
E8
F6
EB
F6
12
01
0E
06
11
03
06
FC
07
FF
F4
EB
F9
19
F4
0C
02
FD
FC
FB
F7
F2
0C
E8
00
F2
1A
05
12
03
07
01
11
FE
F1
F9
E7
02
06
04
03
FC
02
F9
04
FD
06
FA
F5
FC
05
00
FA
FC
05
FD
F9
03
FC
FF
02
FB
22
05
14
10
00
E9
F1
02
F7
06
F2
0E
06
12
07
07
06
0D
04
0F
FA
F0
0D
E8
FF
EC
05
FF
E3
E7
F5
F1
27
33
01
3F
3B
10
F6
EB
F3
F3
E9
F9
06
FB
0C
EB
F7
F1
22
0B
FA
0F
D2
E4
25
0F
ED
09
12
27
FE
F6
1F
15
09
17
1D
04
FD
04
FE
0D
F7
02
03
F0
F8
FA
07
EF
F8
F7
1D
1F
0C
19
E9
1B
00
FF
00
FD
FE
05
D8
FB
14
09
0A
19
0A
F8
F5
FC
F0
00
FE
F4
FC
F9
0D
14
0C
06
06
07
03
F6
F5
E8
13
F8
06
02
EE
E9
F9
09
FD
0B
F0
0B
02
0A
0E
E9
18
09
03
FE
07
02
DA
D9
F0
13
0A
00
F6
13
0E
01
07
F5
E3
FE
E9
F3
09
04
24
10
03
FD
0D
06
FC
F1
F5
04
2E
0A
FF
20
03
08
06
D6
0B
F9
19
FF
F8
FC
2D
F3
00
F7
F0
06
04
EF
08
EF
14
07
04
07
05
01
F7
07
F0
F7
FD
F5
03
05
09
1B
06
05
0C
08
F8
F7
F7
EE
ED
F7
F1
EE
FE
02
09
0B
1D
11
0B
2E
F8
14
FC
FA
FC
00
00
12
F0
FC
10
04
04
1A
0F
E3
07
04
DF
24
FB
01
E0
D4
18
EA
34
FC
F3
20
06
EC
03
FA
FD
FD
E5
FE
03
1A
F8
06
F6
06
03
08
06
03
0F
13
FE
1C
FD
18
01
04
F9
E3
F5
2B
EB
FB
FF
06
05
04
03
02
FC
05
FE
FA
01
FB
F8
05
FC
FE
00
04
00
FA
FB
F9
FF
07
F6
02
13
F9
0A
05
F2
FA
F9
EF
0B
FC
1C
EC
0D
FD
09
17
0F
F3
02
F7
03
E6
FC
07
FA
03
0A
01
FC
27
FE
ED
0A
F2
09
F8
27
01
11
F2
11
FE
0A
07
F7
F4
07
01
05
FE
FD
FB
08
FA
02
FA
00
F9
FA
03
F9
FA
F2
00
07
01
04
02
02
FE
FD
F9
15
06
02
1A
07
FF
17
02
F0
06
EC
FE
EE
17
06
F6
F5
1A
12
0D
0C
F5
15
15
FD
FC
FC
05
FF
F4
05
E2
EB
FA
F5
1C
0B
1D
0D
17
D6
ED
E5
FC
0F
EC
FB
E4
F0
00
11
09
ED
23
20
F4
15
14
11
1E
14
4A
2C
16
10
04
F7
15
13
F7
08
19
F7
02
02
04
02
07
FE
01
F5
07
FF
F3
3B
1A
01
08
E8
26
FD
FD
01
00
FA
0A
C6
F7
04
05
02
0D
11
02
0C
05
FA
F8
F5
F5
E5
09
FF
FC
01
13
0E
02
16
F2
F3
F6
02
09
01
09
10
F5
01
F8
0D
F6
EC
19
11
01
1F
EE
14
FA
12
EB
00
F3
A7
D9
09
0C
15
F2
02
1D
04
13
19
0C
F4
F9
F8
08
23
FA
0E
11
0A
09
0A
FC
07
0D
F5
01
02
E6
F7
05
E2
02
04
E9
F8
ED
F1
FF
F6
F5
EE
EB
F6
0D
F7
01
FF
E5
FA
FC
FF
0A
FA
02
14
05
04
07
F5
FE
F3
02
F6
FA
FD
0F
0D
01
0F
0A
07
FD
0B
FB
02
0C
06
FA
08
F2
E2
17
F2
DB
02
FE
F5
0B
05
FD
18
1A
05
07
10
FB
18
FE
FA
F5
0F
00
05
03
36
05
FB
ED
20
F7
E6
F0
E6
0F
FC
0C
19
FF
08
00
FB
FE
0A
F7
0D
03
FC
F8
10
0F
02
F8
FD
FC
06
2E
05
16
F6
0F
00
ED
02
F7
03
E5
FF
03
FB
FB
FB
08
FE
00
03
FD
FB
02
02
07
07
FF
FE
07
01
F9
06
FF
03
03
F8
02
02
EE
14
00
F9
0A
0A
01
02
11
FF
FE
ED
00
11
0F
FF
F5
17
FD
FF
FB
FC
F1
FB
04
F3
F1
FE
02
02
15
F3
FB
25
FA
27
2B
21
1C
19
F2
15
08
02
FA
EC
F0
E6
FC
04
06
F9
FC
04
05
01
01
02
06
F2
07
07
FE
F2
07
FA
F9
07
FD
FB
F7
FF
04
06
02
03
0E
0A
03
1A
FC
E2
F8
03
0B
1C
19
17
07
FF
13
07
FE
0B
EE
F0
F2
F9
F2
F8
10
FF
F2
FC
04
11
9E
F3
2E
FF
E9
09
F3
01
06
DC
C5
32
06
E8
E7
07
01
07
08
09
37
F2
FF
0E
EA
D4
FD
1A
04
18
E3
0C
48
14
FB
25
0B
00
11
02
F4
F3
F9
07
EF
08
02
07
03
00
F9
11
41
0E
03
DB
16
F2
E2
FD
14
F7
F2
E4
EC
0D
08
05
0C
07
0A
0E
EC
EF
09
FE
07
FE
0C
17
FD
F6
0D
0C
0A
F7
EB
EF
E2
EE
02
06
00
F8
FF
07
0F
01
07
FF
14
3A
12
08
FD
05
F4
F9
F7
FF
00
9E
DD
F8
ED
26
03
F9
16
27
05
03
FB
FA
F7
FB
F4
10
15
04
1D
06
1B
14
0B
FE
06
01
F7
FE
EF
13
FE
EA
11
F9
FC
EB
0D
E9
EC
11
F4
09
FF
FF
02
EA
F7
08
FA
F9
FB
01
0E
08
0B
00
02
10
F8
ED
01
04
04
F6
F8
0B
07
04
FC
03
0A
ED
EE
FF
ED
