03
FC
19
FC
10
15
F4
16
F4
F6
F4
0E
E5
03
00
10
FE
09
07
FC
E4
13
FC
0F
FF
0F
FF
FD
03
03
01
F0
1A
E9
00
FC
04
01
FB
FC
05
FC
F9
02
07
FC
FF
FA
F9
01
09
FF
F9
03
15
E3
ED
F9
05
F0
16
FC
FC
FF
05
10
14
11
0B
02
0B
FF
0F
FB
FA
05
FF
FC
07
FC
02
08
FF
FA
FF
02
FD
0A
F8
1B
E1
14
EA
14
F6
F3
0E
08
07
01
11
03
34
08
F6
F8
01
1A
0B
F8
10
FE
E8
05
0D
EF
03
0D
FA
F3
08
FC
00
FA
08
E8
E6
F9
1B
DE
0C
DC
0C
23
03
09
0D
F5
1B
E3
F6
F9
16
F9
FF
09
00
05
04
FA
02
08
1A
F6
E4
FF
10
FF
10
F2
FB
08
0E
02
03
04
25
EF
FF
07
02
08
F9
38
F4
0B
02
F9
0E
1E
FF
FB
01
FC
0F
09
FC
07
F0
FB
F6
0D
EB
08
F1
06
01
F8
FC
F8
07
F9
01
04
05
01
06
FF
05
FE
FB
FD
FF
05
FD
F8
F8
F8
06
FC
FA
00
F9
FB
06
FD
03
FA
FD
06
00
FF
06
05
FD
FE
F8
01
FB
FA
00
FB
08
02
02
FC
04
FA
FC
FF
03
01
FA
FF
FF
FC
FB
FA
FF
01
FF
03
F8
F7
FF
06
03
06
08
FC
FA
07
FF
01
07
F9
00
00
FE
03
00
00
FA
FE
FA
F8
FB
00
07
00
FE
00
04
05
FB
FD
FC
FB
01
F9
FC
06
F7
02
FB
F7
FA
F9
05
FB
06
05
FD
FD
02
02
F9
02
FE
F8
FB
F8
FA
FA
05
FA
05
01
FA
FA
06
FB
06
F7
FE
02
FE
FF
00
07
06
FD
00
FD
FB
05
F9
FF
FA
03
F8
FC
05
03
04
08
FB
04
F8
FC
F8
07
00
FA
00
FB
F7
FD
04
FF
02
F9
FB
01
00
FB
FE
F9
F7
04
F8
06
FD
00
F9
FB
FB
F7
F8
03
FA
FA
00
01
05
FA
F7
F5
F6
04
FA
FD
03
F9
F5
FD
FD
07
FD
F7
F8
FB
F8
03
00
FA
F5
FF
F5
F8
F8
00
FF
01
FD
F5
F5
00
FC
FD
FF
FD
04
FA
FE
F9
FA
FB
05
01
F9
FC
FB
01
FD
03
F8
F8
02
00
03
04
FD
FF
FD
F8
FF
FD
FA
02
FE
FD
02
02
FA
FE
FF
00
FF
FB
FA
01
FE
02
FA
04
07
F8
01
FD
FC
00
04
F5
08
02
09
08
FB
07
FE
FD
FC
FA
F8
04
F5
FE
01
08
FB
01
FF
FD
00
F9
03
01
FB
FB
FF
FB
00
03
FA
06
01
FA
F7
02
F9
01
FC
FD
FE
FC
04
F7
03
00
F9
FB
FF
FE
FB
0C
00
FC
FC
FE
07
00
FF
F9
F5
F7
00
FC
FE
01
F9
FD
05
02
FE
FA
02
FA
FF
FB
F8
01
04
FE
F7
FB
04
02
F9
F6
F6
01
00
FF
04
F8
02
FB
FB
F5
FB
FB
00
FB
06
03
FF
FC
F7
FE
F4
F9
FC
FC
FA
F3
F0
F9
F2
F9
FC
04
FC
01
FC
FE
FE
01
F9
FB
02
00
04
F9
FC
00
F8
FC
F9
05
FD
FF
FE
FA
02
00
FF
07
FB
04
FD
05
04
01
03
F9
FC
F7
01
FC
07
F8
FA
02
FC
F7
FD
F9
F8
FC
F1
FC
F7
FA
FF
FB
F3
07
F6
F5
FC
03
01
05
FC
07
05
FB
FE
FE
05
FF
FF
FC
F7
07
F3
F5
01
F1
F7
FD
FF
F7
FA
FB
F8
F5
FE
F4
FD
F6
F2
FC
FD
04
F0
F8
F9
F4
00
FF
F1
03
F5
FF
FB
F3
FF
FE
F8
F3
00
FF
F9
04
FE
05
FA
FF
06
03
F9
FA
F8
03
F6
07
FA
FA
FD
03
FF
05
05
F6
05
05
FC
FA
F4
FF
F1
FB
F4
F7
06
FA
00
F7
FC
F6
01
FA
F5
07
F1
07
F4
FE
F9
FF
F3
F3
01
FA
01
F3
FD
FF
F9
FD
F3
06
F9
F1
FD
FE
FA
F3
FA
06
FC
FA
0D
03
C6
F0
FB
15
17
FB
06
F5
06
01
14
03
59
16
10
FF
1D
09
1A
F8
00
FB
EF
F9
07
FC
FA
15
0A
02
EA
F2
FC
10
01
04
F9
FB
05
FA
02
03
06
02
FB
FF
FB
F6
03
1C
FE
F0
FB
F6
06
FD
22
E9
EF
11
03
E9
0D
1D
01
F2
0C
EA
06
FD
08
FB
F9
06
FD
05
09
FC
00
FE
04
FF
F6
FB
EA
F7
11
02
15
04
08
03
F7
EF
FD
02
E8
0C
E8
08
1D
06
FE
0D
F8
D8
F4
FF
12
18
CA
07
D4
F8
33
09
1C
FA
00
0C
00
FC
FB
01
15
1B
F8
14
FC
03
02
0A
EA
E4
EB
0B
15
05
01
0E
01
FE
F9
F8
0C
E8
0A
EB
03
10
F3
08
0F
F6
03
E2
EE
16
F1
07
0F
03
F6
24
FA
FF
FC
08
02
FB
EE
3F
07
3D
0A
00
0C
01
FF
EF
07
FC
EF
F2
04
18
09
0C
07
FE
0F
13
04
00
FE
02
F5
C0
01
03
16
16
06
F8
FC
00
14
09
0D
0E
02
14
20
04
DF
04
ED
00
ED
FD
EE
06
18
F8
EF
FC
FF
03
00
03
FA
04
FD
00
01
04
01
FB
FF
FF
00
FB
F9
FB
F0
FE
17
0B
2C
15
FE
FC
FD
FA
02
E9
FF
08
F3
01
0E
15
0F
F9
09
FD
F4
FC
FD
04
00
01
F9
FC
0B
06
08
FF
FF
F6
F3
01
02
19
1E
F0
06
FA
F3
F2
00
02
10
04
14
FA
E8
D0
F8
04
09
E1
12
0A
12
FE
E4
EE
09
C6
00
14
EE
EB
09
08
FC
FD
FD
F0
06
F7
F5
F9
FE
03
08
1B
FC
F5
F5
06
14
05
F6
08
08
F3
07
01
0A
F8
F7
16
0E
FC
37
13
F7
FA
F4
04
F5
FA
00
FD
FC
10
19
0D
1E
03
F2
FA
FF
06
06
34
EB
EA
03
17
FC
EF
0E
07
01
FC
F0
FA
FF
0D
03
03
F7
01
FA
F9
09
0D
05
F8
02
F9
04
FF
FA
FB
06
FC
FD
FA
FA
03
FC
07
02
04
02
F5
FB
F2
01
07
00
F8
01
03
01
01
FD
FC
FD
00
FD
02
00
FA
FF
FE
FD
F9
04
FD
02
FD
FD
07
05
00
FB
F9
FD
05
00
FE
FB
F3
FF
F8
FB
01
FC
00
05
FB
07
04
F7
F5
FF
FF
00
07
00
FC
F9
08
03
03
FC
05
06
04
FC
FB
FC
FA
04
FF
01
F8
00
FA
00
02
F6
08
F7
03
06
03
02
F4
01
FE
F9
04
FC
FF
08
FC
FF
03
06
02
02
FD
02
F4
FD
01
F3
05
F6
05
02
F8
F9
F7
FB
FF
FB
F6
04
F4
FA
FD
FE
F4
FA
F4
FC
FA
07
00
04
F8
04
03
03
FE
00
F9
FF
FA
01
00
FF
03
FF
FC
04
FD
0A
F8
F5
FC
F6
FB
09
03
FA
F0
03
F7
FF
F9
FF
06
02
FB
06
04
F4
FB
02
FF
01
F7
02
03
F7
06
01
04
FE
00
05
00
05
F9
03
03
04
FB
F7
00
03
FD
F9
FB
03
FB
00
04
00
FB
03
05
04
FE
FE
FC
05
05
01
03
05
FA
04
FC
FD
00
FD
05
FF
04
F8
04
05
FE
02
07
03
09
01
FD
FA
F8
04
03
06
06
FD
01
FC
FD
FB
05
06
00
FD
00
FC
FD
FA
FE
05
FA
00
08
03
04
05
06
FF
F9
07
FF
06
FE
02
F8
F9
FB
02
F8
FC
01
FA
04
FF
FB
FB
FF
01
01
FA
07
06
04
04
FF
01
05
02
FF
01
FF
01
FB
02
03
F7
F8
F7
FA
FF
F7
F8
03
01
FB
FA
05
03
00
05
FA
02
FB
01
FB
FE
05
04
06
FA
00
FF
05
06
FA
01
FF
FD
F9
01
F8
FE
00
04
FA
FF
02
FC
05
07
02
03
02
06
07
01
00
04
04
00
FB
02
04
F7
FB
05
00
FC
FE
01
02
00
04
FB
00
01
FA
00
FA
FF
FB
03
00
F5
F9
06
F3
FC
F4
FB
F5
FF
02
F5
FD
03
00
07
FF
02
FF
07
FE
05
F5
03
FA
F4
F5
FB
FD
FB
FC
F6
02
FD
F5
F9
FD
F9
FA
02
FF
F9
01
07
FC
FC
FF
07
F9
FE
F8
FE
F9
02
00
FE
01
FD
FF
00
F9
FB
FD
F9
02
FC
FC
FB
FA
FA
F7
F9
00
00
FF
05
00
01
FB
04
FA
04
02
FE
00
04
FB
F4
00
FC
F9
FC
FE
00
FC
FD
03
F9
FA
FA
F9
FB
FD
F5
F7
FD
FD
FB
F7
F6
FA
FA
F7
03
F7
F9
F4
FB
FE
F5
FD
F5
FB
02
FD
01
F9
F3
FB
F8
FD
FF
FB
F6
00
07
00
F6
03
00
F9
F6
05
02
FC
FE
F4
03
01
FD
01
F9
00
F8
02
FF
FC
F6
03
04
FD
01
02
02
F5
05
FB
F7
FA
02
FC
FF
F5
FC
FE
FF
FF
FC
FD
F9
F5
03
FA
FB
FC
FA
00
F9
02
FB
FD
01
F9
FB
F9
FF
01
11
0A
E1
FE
EA
EB
10
E4
22
14
0E
15
21
02
0A
0F
17
0E
EB
15
15
01
EB
12
0D
01
F2
0F
1C
FC
02
C9
00
0E
F7
09
02
01
03
08
01
03
F8
FF
FC
FE
FD
FB
07
00
06
0F
0E
0B
08
10
0D
01
FB
FB
F3
0C
02
02
0A
0C
0F
1D
33
0F
F8
00
E4
FA
FF
06
FC
FD
F9
00
0F
00
F7
00
FC
FD
08
0B
08
04
0B
04
0D
FA
F9
03
F3
F9
10
16
00
06
DD
0A
05
E1
02
E3
10
12
08
10
D6
0F
D7
F1
00
CD
10
EE
17
1A
06
06
FF
0C
15
FA
FD
CF
04
1E
F9
C6
00
F9
03
F9
FC
02
03
05
FB
03
06
F2
EF
16
04
0D
06
05
14
F4
19
CD
06
FF
F0
10
03
0F
14
04
0F
F6
F7
04
16
F6
02
09
FB
29
FF
F6
FF
16
28
F4
F7
02
FF
FA
08
05
07
08
06
02
06
F5
F8
07
04
03
FD
01
F6
F6
FC
F7
F4
FF
F0
FC
FF
F7
F6
02
04
FB
FA
F9
01
04
07
F5
FE
F7
FD
01
F2
FF
F7
FE
FC
F4
FB
F7
05
02
07
FB
FD
01
02
05
04
FE
04
00
FD
01
03
F6
03
F4
FD
F5
01
00
11
00
F9
05
03
F9
01
F5
F8
05
F3
FE
F6
F5
FE
F7
FF
06
FF
FA
FA
05
04
FD
00
FF
FD
FD
00
FE
FC
FC
F4
FE
FD
FF
F2
FF
FA
FF
FF
FC
F3
FC
FE
FF
F9
06
F8
00
F7
08
FC
00
00
03
FE
FC
F7
FF
F3
F7
F6
FD
FE
FA
F7
F6
F8
02
01
F7
F6
FB
F7
F6
F0
03
05
00
FD
F8
F9
F5
F7
F3
F7
F4
F3
02
03
F8
00
F6
08
F4
F6
F9
F5
F8
F4
04
01
FC
01
FA
FB
F8
01
02
FF
F4
FB
F1
FA
FC
FC
FC
03
FA
FC
F8
F6
F6
FF
F0
01
F7
F9
FD
FF
FA
FF
FD
FF
F3
FA
00
FB
FF
FD
F8
21
F2
27
04
16
EB
06
FC
06
04
0B
08
ED
0F
EE
02
F8
04
F4
08
FC
0D
F9
0B
04
F4
20
F7
08
EB
0A
07
02
15
F8
FA
F9
02
03
03
FB
08
01
FD
06
06
00
FE
02
F0
06
F5
0D
FB
05
FF
05
F3
08
0C
FF
05
FD
FC
00
F8
29
10
F7
FE
19
FC
08
08
FB
FD
09
FB
04
04
04
04
F8
F7
06
0F
13
04
20
02
F2
F6
05
FF
00
03
FE
07
07
E9
30
09
03
F1
0A
E1
F3
05
08
08
05
FF
3C
13
19
E7
FD
D8
0D
0C
11
FB
08
07
1D
00
07
F1
03
F2
F0
FD
F9
06
F7
07
0B
11
10
F8
F9
F6
0B
FF
06
FA
0E
F2
24
F4
07
FE
05
F3
05
FA
FC
01
00
EF
02
F5
0C
07
EF
02
0D
F2
09
03
0B
3C
FB
0F
01
F8
2A
F6
02
F4
00
FF
00
03
FD
19
09
04
F4
02
F3
06
FF
06
10
13
17
0A
E6
F0
F7
FE
03
1E
01
07
11
FA
FA
EE
05
0F
05
09
33
02
FC
F0
16
00
F9
F9
E4
0F
0F
0C
F4
04
10
F2
01
FA
06
00
FD
08
FE
08
FC
07
01
07
FE
FD
05
01
F2
0F
F6
14
06
FC
F6
05
02
0D
0B
0B
07
01
0D
09
F6
0C
06
00
EB
FA
FC
FC
02
00
F7
01
00
01
F2
08
02
0B
04
EB
F3
05
E1
11
0E
03
01
14
06
0B
F4
04
FE
28
F7
07
FF
F8
01
30
09
07
F8
07
09
0C
EA
FA
E4
01
23
22
F8
03
FA
18
F8
FC
F4
08
02
05
E7
18
05
F6
06
07
FF
FA
F1
02
01
07
F2
0B
03
F4
FF
FD
F8
0F
E4
04
E6
07
0B
F8
04
11
0B
0D
03
FB
02
08
FC
F8
02
11
0D
03
01
10
FC
CE
0E
F2
00
14
ED
06
0B
08
FF
00
0F
F4
09
F3
02
03
0A
F4
0A
09
F9
09
10
01
F6
17
D5
1B
1C
1A
05
FE
0A
0D
EA
FC
C7
03
21
EC
CC
05
36
08
FD
18
01
00
01
FC
0F
0F
E9
F1
01
03
0D
07
01
02
06
04
04
05
FC
06
F7
01
08
FD
04
F9
09
0B
F9
1D
F0
F2
02
01
09
0E
24
F1
FA
11
0A
0E
02
22
2B
FD
EE
FD
07
F9
03
01
01
06
05
FA
FB
07
FB
07
07
01
EF
F8
FC
F9
05
10
FE
FB
11
0B
0E
08
08
0D
F0
18
E3
15
F7
F9
02
F4
FB
F7
05
04
11
0B
FB
1F
08
F3
24
ED
10
0A
F8
00
10
02
0F
02
F3
F4
F6
0C
00
FF
04
F8
FD
FF
E9
0B
15
09
FD
0B
07
06
05
20
06
1A
07
07
0A
F1
F4
E3
02
FF
16
F3
FA
10
FA
13
FD
EE
F3
04
08
FF
08
07
09
AB
03
D6
02
27
0A
FB
02
F3
F7
06
FF
F7
0B
03
F7
0F
FC
F8
FB
07
02
FF
DA
0D
E8
E8
0A
07
0D
13
FC
F0
F5
0E
0F
0F
19
04
E2
06
08
08
CA
0B
FE
03
F6
07
11
00
ED
F8
11
28
FB
04
09
16
FD
F8
FE
FF
05
F9
FF
04
00
03
05
01
06
1A
06
F7
14
F1
07
F2
16
FE
0B
FB
00
03
03
07
FB
12
FC
F1
E5
F7
08
04
17
07
03
FD
04
FD
F9
FA
0B
FA
00
FF
06
0B
0E
FF
12
00
06
1D
FC
F3
FC
06
1C
FD
15
09
03
F2
F2
AB
04
31
13
F0
16
F5
F2
FD
E9
07
0E
F1
1E
20
D2
05
EF
07
02
09
06
FF
E5
FF
FF
2E
03
0B
0D
24
06
0B
FF
0D
EF
03
17
F3
01
F6
09
05
0F
02
02
F0
F3
F9
27
03
FC
20
F9
0A
08
13
FE
FE
15
D9
12
12
04
EE
F8
09
0E
0C
02
2D
05
FA
07
0D
D4
00
F4
13
13
06
02
08
0B
F4
0A
10
FD
06
07
07
03
0C
FF
0D
BB
3F
09
0C
06
07
01
FC
00
09
08
0A
48
01
18
E9
E5
04
F2
1E
0D
FF
FA
03
2B
15
EB
16
0C
15
04
F0
08
15
FC
F8
06
FC
00
04
06
FD
07
FC
06
FC
01
10
0B
0F
F0
F7
DF
DD
1A
0C
15
16
FE
FD
0E
DE
07
1F
FE
ED
00
F6
0C
05
1B
02
02
F8
FE
04
09
07
04
07
F7
07
00
17
F6
08
19
FB
DC
10
F9
F8
FA
EF
0A
07
0D
0C
09
0A
F1
16
08
28
1C
FD
08
05
02
07
FE
11
AD
24
04
0C
F8
E7
04
01
F9
16
1A
1D
E9
0A
08
14
08
ED
FD
2B
05
FC
0F
14
F7
E2
10
FB
FC
F2
04
F3
F5
F6
0E
EF
07
0C
E6
FB
FA
1F
FE
0A
FF
12
04
11
03
DC
E8
FA
E1
0C
FD
12
03
02
FE
FC
1E
22
0D
11
0B
08
17
09
16
0D
FA
17
0E
04
F1
0D
08
03
F8
06
FD
02
07
FF
27
19
15
07
02
DA
FF
10
0D
0D
16
01
04
FF
01
F5
16
FA
32
F4
1A
08
08
FC
07
F5
F5
FE
02
0A
F7
14
1B
F8
04
FB
FF
02
07
08
FF
F8
06
06
F9
FA
FC
05
08
FC
04
FE
F3
FB
00
06
0C
F9
F6
10
07
08
07
D1
FD
E6
E4
06
11
05
EA
FB
03
03
03
06
01
00
03
FC
09
F9
04
FA
08
0A
FC
FF
0D
EF
F6
11
0E
08
F6
08
F2
FC
EA
FF
0C
15
12
03
FF
22
F6
F4
00
0F
FE
02
12
1D
E3
0C
25
0C
07
12
04
09
07
03
FA
00
02
08
EC
0B
15
F0
FE
11
07
F7
FE
FD
F2
FC
02
0A
08
EE
13
F7
08
F4
F2
F6
E1
F6
0A
F8
19
07
08
12
01
04
00
20
FA
F4
FC
09
0B
0A
0E
05
10
11
01
22
06
E8
F4
F8
07
F6
FB
FB
03
0A
00
08
09
EC
FC
F6
FF
08
06
0D
0B
0D
0C
B4
0E
BF
F2
0D
02
03
06
01
33
04
FC
FC
EE
25
16
0D
E4
02
E4
00
0F
14
D3
09
F2
E7
04
FD
ED
13
02
F8
00
04
F8
00
FD
01
07
08
05
FE
08
FA
05
07
FF
EE
F9
0D
27
14
19
EC
FD
FA
F8
15
08
24
F9
FD
12
02
05
F9
01
FF
D8
FB
02
04
06
FD
07
FF
FD
FA
F7
00
0D
0E
0D
F6
F8
0F
03
18
F9
01
FE
FD
F5
08
0C
0D
13
0F
FB
97
05
EC
0E
F6
13
0E
FF
0E
C8
02
20
9D
F9
E4
04
1C
08
07
09
01
E4
F8
F6
EF
07
F6
E0
22
F8
0F
05
04
F9
08
01
05
1D
F6
08
FC
FF
FB
08
FC
FC
01
DA
05
29
18
00
F7
03
FE
FD
17
00
E3
04
E9
01
07
14
08
16
FA
05
0A
07
49
EF
17
0B
04
FE
0A
17
03
0D
06
0A
F3
FF
F2
F9
14
EE
04
FE
F7
FA
0C
FF
06
EF
0C
ED
18
EF
E6
ED
08
FD
0D
F5
FB
39
20
23
FF
0B
F9
EC
FC
06
0E
F8
EA
FB
0C
F9
0D
F5
E9
0D
F9
04
FB
04
06
FE
01
FA
FD
04
05
FF
04
00
FC
05
10
09
11
FF
01
F9
0F
F9
FE
19
F3
0A
E3
16
E5
03
0A
11
01
F1
07
0A
FA
1A
07
03
FB
02
FA
0A
F9
02
06
FF
06
FB
05
FE
FF
0F
05
F4
E9
FE
02
06
07
01
10
07
0A
F2
13
0E
EB
F9
11
07
F7
01
02
06
05
09
0C
E4
0E
F4
FE
F4
F6
0B
09
F3
08
08
20
05
F6
E8
E4
11
FE
0B
04
FF
FD
03
05
19
05
F5
FD
01
F4
07
F8
E3
02
18
F2
14
0B
E3
FD
00
F3
09
D9
1A
18
FD
03
0E
07
F3
F2
F8
02
F6
16
0C
E7
F3
C4
27
60
03
01
20
09
05
0E
07
FD
FC
11
0F
12
01
F9
F4
FF
FD
15
FC
F8
05
FB
12
0F
00
16
11
02
F4
F8
03
EF
EC
0B
01
0D
21
F5
14
EB
FE
04
06
05
F2
F1
0B
F4
08
FC
EC
07
0A
F6
02
02
00
03
06
FE
06
04
05
00
FE
01
FC
F9
FB
F9
FE
12
0A
00
0D
F4
E8
10
FF
08
17
E1
FF
FD
06
F5
F6
FD
F7
06
1A
0C
11
FB
FE
FF
FF
F9
02
FF
FB
FF
04
05
0D
FB
FB
08
01
06
0D
E2
03
15
05
F9
0D
0E
FB
07
0C
ED
08
1A
06
13
08
04
08
11
0B
F8
2D
FC
0E
17
EA
33
0B
E7
19
F3
02
FB
13
05
13
F4
FF
0B
00
EC
11
33
FA
FD
FA
FC
13
FF
F4
03
09
FD
FD
1C
19
FE
0E
0E
13
FA
01
F4
E3
FD
F4
08
0D
EF
0B
0B
F6
29
04
ED
0C
FB
EB
0C
03
F9
0E
D7
FC
F2
03
0E
15
FE
26
02
05
00
F5
0A
01
1E
FD
F0
FA
00
FD
08
0D
0C
15
F8
2C
E3
2C
F5
EE
ED
0B
0A
01
07
15
FD
F5
23
F4
13
30
F5
E2
F3
FB
F6
FC
0C
F7
F0
0F
F7
00
F6
08
13
FC
F0
01
07
F9
07
03
04
07
05
02
FA
FB
F9
FD
F8
F8
F7
1A
01
21
1E
F5
03
01
F8
FD
0B
FA
01
EE
DF
0A
DD
EE
0C
0E
07
FF
04
F9
04
05
03
FF
06
F8
03
00
01
00
F9
00
1B
00
05
0A
E7
0D
18
F4
07
F3
05
F9
08
0A
E0
39
0E
03
F3
F4
10
0C
0E
0F
03
F6
E9
2C
E2
EC
03
06
02
0E
05
0C
FE
EE
EA
11
F4
07
F9
06
06
FF
EF
FB
0B
09
F2
1E
03
E9
FD
10
04
00
F7
10
F3
04
02
13
FD
E4
0D
02
FA
0A
00
0A
03
06
E7
02
16
05
FE
16
0A
04
FD
00
FD
01
3D
EE
20
04
E7
26
06
07
08
FA
FC
0B
0E
F6
1B
07
EC
FC
07
00
01
F4
0A
03
0D
F3
0D
15
E6
E5
F3
F8
0B
0A
F4
F8
00
EF
0E
03
09
13
18
BD
04
07
F2
02
0B
0E
FB
09
00
16
FE
FF
FD
E5
EB
05
FF
00
03
FE
FF
05
FC
F9
FB
FC
FB
FF
0B
02
07
06
15
0C
21
08
01
F4
03
EF
0F
FB
FE
10
12
F1
F6
F2
EC
0D
0A
F2
FB
07
03
07
06
00
FC
F5
F8
F8
06
00
03
0B
0D
02
15
04
FF
06
12
F6
FF
05
F3
02
06
15
F1
09
1A
EC
E2
0A
EF
F7
12
15
08
18
08
09
00
0D
F4
DC
13
0E
F8
FB
FF
0D
11
06
F8
06
FC
07
05
E2
F8
03
00
11
05
02
0C
F9
FA
00
0C
EB
07
F0
0C
09
06
07
10
F1
11
1D
27
03
FD
FA
02
FF
05
0A
0A
FF
11
1B
F7
0A
03
F7
FD
F6
E4
0D
0B
FB
EE
FC
23
E0
F7
10
FE
08
0E
FC
0B
0C
FC
FE
05
16
E4
0D
F5
02
F7
02
05
F7
04
FA
06
00
FF
FE
FB
08
FC
F7
FF
00
03
02
FA
FC
FA
F9
00
FF
04
06
07
FB
FF
05
01
F8
05
01
F9
FE
FC
F9
FB
03
FC
FE
03
FC
FB
05
FB
05
FA
04
FC
01
03
FA
FF
FC
F7
05
FF
FD
07
06
FF
F9
FA
05
09
02
00
00
FA
02
FF
01
FD
07
FC
FE
FC
FA
02
F9
FE
F9
FE
F8
05
03
F8
FC
FE
09
FB
FC
03
FA
FE
FE
03
02
FE
03
FC
03
05
FD
03
03
F9
00
F9
FE
FA
00
FB
FC
F7
04
FC
01
FD
FD
FB
02
F8
FB
F8
FB
04
FD
FD
05
FF
FB
06
FE
FB
FF
01
00
FE
FB
01
00
FB
FA
05
FE
06
FE
FA
FA
FA
F9
04
FA
02
F9
F8
00
00
FC
02
FF
FD
04
FB
FA
FA
FD
FA
F9
F9
03
00
02
00
F9
F8
F9
00
F8
04
00
01
F8
F8
04
FE
01
03
03
00
00
04
00
FC
FD
F6
F7
FC
FE
FE
F4
02
F7
F6
FE
06
F5
00
FC
F9
F7
F7
00
F9
FD
FF
FD
00
FD
FA
FC
F4
F7
FC
02
FC
01
01
FF
03
04
07
00
00
FB
03
FB
02
FB
02
FF
FA
F4
FB
FF
00
FD
F4
F6
F6
F4
F9
02
FB
F5
F3
01
FC
00
FE
F7
F4
F8
F9
F7
00
05
FE
04
03
06
01
06
03
03
F9
F9
01
FC
03
03
00
F8
F9
00
FE
F5
F8
FB
02
FD
FE
00
01
00
06
FD
00
FE
02
02
FB
F6
F8
F9
FB
FC
F8
07
00
00
FB
03
FD
F4
F5
FF
FC
F8
FC
FC
07
F8
01
02
04
02
FB
01
FA
F4
F7
F6
F7
02
F3
FF
00
F4
00
FA
01
F7
FE
FF
FE
F5
01
01
04
F5
FC
F9
F6
F8
FF
F6
F5
03
00
FD
FB
FD
FD
F7
F6
02
FE
FC
FA
F9
FC
F6
F9
FF
FF
F5
FB
FD
F4
F6
F9
FF
F6
FA
F9
00
03
F9
F4
0C
EE
20
EF
F8
F3
F5
FC
FF
0D
FB
FA
D7
EA
DB
FC
FB
05
D8
F5
08
F6
08
01
09
F5
FF
F0
11
14
01
1F
07
F6
FC
07
FA
F9
04
F9
F9
FC
06
FB
00
03
06
02
FA
F3
02
EF
FD
08
03
FB
FA
F1
FC
12
02
10
FE
EC
E5
D2
F2
06
F8
F8
11
07
06
03
FA
00
06
FD
01
01
0D
FB
F2
01
1D
12
FC
FE
09
08
F8
F0
FC
20
0C
FB
02
F2
02
EE
EE
DD
11
E2
00
E7
EC
FA
F7
FB
20
ED
4A
15
20
0B
D7
09
F0
10
05
02
01
F4
F9
0E
18
1D
0C
14
0E
CE
FF
1A
0B
FB
ED
0F
1E
F2
F2
06
17
FB
09
12
FC
FE
F0
F9
01
FC
1A
1A
F7
F4
F8
02
06
F5
FC
09
05
12
03
E7
05
00
06
00
0D
F8
F0
FB
05
EB
D5
03
DB
1F
0D
F9
12
06
01
EE
0F
14
F9
FD
11
0B
0D
01
0F
0E
0A
11
21
EA
16
EA
09
05
F8
EE
14
06
32
DE
05
EB
04
0B
2B
18
F9
00
FE
0B
0E
F5
FB
04
03
04
0C
F4
0C
17
F9
01
07
FF
FB
07
F9
08
FE
05
08
F8
FE
06
02
02
F4
ED
F5
F0
0C
06
02
00
F6
07
FD
F7
F7
02
04
DF
1B
0E
07
FF
FC
F9
F8
03
08
FA
03
F8
02
02
08
04
F1
01
04
F0
0B
F0
FB
FE
F2
00
03
EB
FB
09
F8
F2
11
F5
36
34
1A
23
12
0C
06
0C
FE
07
E2
02
FF
25
01
FB
1A
EE
10
04
FD
01
0B
F2
F5
0D
14
03
06
F2
F4
23
07
09
EB
03
0B
F2
02
FB
06
EE
F9
F4
01
F0
F7
F1
07
F3
F9
EB
E9
F0
08
08
EE
11
0A
03
DF
FA
EF
F9
EC
14
12
FB
FF
10
00
22
01
29
08
09
19
FE
1D
F3
FF
01
01
07
FF
07
FB
E8
FB
09
F1
00
F8
F5
FC
F8
F8
04
F9
01
F9
FE
05
F8
02
FF
00
01
FE
FB
F6
02
07
FE
FC
00
05
03
FA
FD
F7
FA
FB
F8
FC
FF
FA
F7
00
05
FD
02
02
04
00
FB
00
00
05
FD
02
07
06
04
FD
FB
04
01
FD
FA
FA
FD
01
06
02
FF
FF
09
03
FB
03
F9
05
00
05
05
FD
FC
FA
00
07
04
06
F9
FE
06
03
F9
05
F7
01
04
F8
FB
FB
FE
00
00
06
06
07
04
FC
FB
01
01
07
F9
F7
F7
03
03
FB
F6
04
F9
06
FF
FB
03
00
F7
F8
03
04
00
F8
FE
F8
05
00
F8
02
F9
05
F9
04
FA
00
FD
F7
00
FE
FA
FB
03
05
05
04
FD
01
04
06
06
00
00
F9
F7
F9
FA
FD
F9
06
07
03
F9
FC
00
06
FB
F8
02
03
05
FA
FB
FB
02
FB
FC
02
FD
FD
FF
FD
FF
06
03
02
01
05
FB
FA
FC
04
FB
FF
FF
00
01
F8
FA
F0
F9
FD
FF
F7
F1
F5
FF
F6
07
FA
F8
FE
F2
F7
F9
FF
F3
04
FD
FC
FF
06
05
F8
F6
F5
FA
FF
FF
05
01
FE
05
00
FC
FA
FB
06
F9
FC
F8
06
FB
03
06
02
04
FD
FF
F8
00
FB
F4
F9
01
FE
00
0C
F1
FB
FC
F8
F6
FF
F2
F4
04
02
FC
0B
F9
05
00
00
03
06
03
00
06
03
FF
FD
04
FA
F5
FC
FA
F9
F3
F3
FB
FD
01
F8
FD
F7
F9
F4
F8
F6
FB
F3
FF
FA
F6
03
F0
F9
F7
F4
00
FB
FA
FA
FE
00
FE
F6
03
FC
F5
FC
F3
F0
F2
05
FC
F8
FA
03
F8
07
03
F5
FF
F4
F1
F2
F9
FF
FE
04
F6
00
FE
00
FB
00
FC
FE
00
FA
04
01
F8
0A
FB
F9
F9
F0
F6
F3
F7
F8
FF
F5
04
FC
00
F8
F6
F6
FA
F9
F3
FE
F2
FA
F7
F3
04
F7
F8
F4
F7
F8
F5
F7
F7
03
01
05
FF
F9
0C
01
17
E1
27
0E
21
ED
F5
FE
FC
EC
05
F6
F1
0F
E9
F2
EE
EE
01
17
09
FD
E4
0F
FB
EE
04
F6
23
01
F8
16
02
F8
04
04
00
FD
FA
07
FD
FB
06
03
00
FE
FF
07
0B
FE
F9
F2
E0
FD
0F
01
15
24
F7
04
0B
09
10
DB
EB
E1
FD
10
10
23
05
F9
FF
FB
FA
05
FE
F9
FA
05
00
0A
0B
00
FF
F8
F2
EB
19
F9
F7
0E
FF
2C
12
FF
03
F6
FC
DE
F0
0B
18
06
06
FC
F9
02
F5
2F
F7
03
3C
0F
43
EB
F5
F0
FC
F1
07
12
04
F3
FE
F7
33
FC
07
09
33
0A
FF
06
0B
E9
F2
10
01
04
05
07
1F
16
0B
01
05
F1
01
12
FD
EE
2B
01
06
1F
01
01
0D
FB
0A
FF
01
FF
E9
E7
07
08
07
10
AA
09
D8
08
26
DB
00
F9
00
1B
02
F4
07
0A
FC
02
0B
0A
FE
08
0E
11
03
13
05
04
1D
03
11
FE
1B
06
10
F9
F1
F6
FD
07
D9
E9
00
E4
0C
31
05
04
F7
13
08
07
06
E4
19
1C
06
06
0A
00
F4
00
01
FD
FF
05
FB
03
FC
01
FA
06
FA
00
06
00
04
E9
F4
E2
FD
1B
0C
07
02
F6
24
0E
09
FF
06
14
E9
0F
0F
FA
F8
FE
FB
FB
00
02
01
00
02
07
FB
00
07
FD
0D
11
EA
F4
E3
F9
29
07
F2
FD
11
F5
FF
FC
F7
F0
21
2E
2D
0B
F1
FF
1B
F0
00
EE
FF
DF
0C
0A
34
12
03
10
16
FA
06
FF
06
FA
EB
01
27
1A
0B
01
0D
FD
D1
06
13
FF
F5
EE
E9
1E
0B
FA
0D
04
E4
F7
07
F8
FC
07
08
EF
F6
04
0D
FE
EF
E4
07
F8
F8
F7
E3
F6
09
F5
07
0E
04
F1
04
FF
F6
01
FC
01
F7
16
09
EE
FD
F8
06
0C
F8
FC
F1
FC
1A
0B
08
06
02
F6
F8
00
F4
FC
0F
09
09
0E
06
07
06
04
FD
F3
05
F7
F0
F3
F0
DE
07
26
EB
16
F8
0B
04
18
FB
06
0C
18
0A
FE
17
F8
08
FB
00
FD
F9
FD
05
FD
F9
04
06
FD
08
FD
FC
02
FA
F9
E6
F6
07
02
06
04
F3
EC
20
FC
FA
06
F9
EF
E1
08
0B
FE
F8
09
FD
FA
FD
00
08
00
F9
03
FB
0E
FC
F9
FE
09
1C
08
E9
1A
0D
0A
F3
0F
1B
01
05
FB
F9
F6
ED
F1
0D
15
F4
F3
EB
E7
F4
03
F9
3C
04
29
41
2E
13
F9
25
EE
09
04
F9
0C
07
09
1C
10
25
0C
0F
F4
CB
F8
14
12
09
EB
19
11
04
F9
08
01
F6
05
0D
09
F6
04
FF
FB
EE
2A
05
FF
F7
F5
F2
F9
0C
F8
09
FC
10
F6
03
FA
FC
FA
F6
05
08
02
0A
FF
ED
E4
EF
E5
07
02
F6
11
0F
08
FF
0F
0F
05
00
0A
05
12
FF
1B
F3
D0
09
DF
1E
0E
0C
08
0C
0B
00
DC
05
18
F2
31
02
DF
05
50
F2
F9
02
FD
06
03
1C
15
1E
02
E6
07
03
F2
0C
FE
06
03
04
FD
FB
05
FB
FE
06
F9
01
03
FE
0A
14
FA
FD
05
F9
01
FC
0D
F2
E4
FE
09
F3
05
15
22
21
1E
12
F2
EB
EB
08
FA
02
02
07
FC
08
06
05
FC
00
F5
F4
06
0E
0A
01
02
FE
2D
1C
01
03
EF
F7
F9
FF
EE
18
E6
25
02
ED
F2
FC
F6
00
09
05
12
17
B5
FE
16
EB
32
21
03
08
02
FE
02
0D
01
12
FC
DA
07
02
FA
C4
01
04
06
07
F7
04
F4
18
05
00
FC
F0
FE
0F
02
05
FA
10
1D
F7
27
E1
07
F8
E7
F6
F4
1A
02
19
F5
FA
16
19
13
F7
FD
02
FA
1C
16
01
FA
FE
06
FF
FA
FE
F9
01
07
07
0E
02
FB
F5
0F
04
02
06
00
FC
