F9
FD
04
16
EE
F1
12
FF
24
ED
03
F6
FC
02
13
F5
1A
F5
E6
DC
0D
ED
05
ED
0C
0B
FF
03
00
FF
EF
08
16
F4
FA
0E
1B
F9
FF
FA
F9
F7
00
04
01
02
04
08
05
FA
00
FE
FD
16
DC
E3
02
0E
ED
09
F8
03
FA
F7
01
0C
F7
1B
DF
FF
F0
F7
07
06
FA
05
FE
02
FB
FE
06
FB
00
05
01
FF
11
03
06
E9
F1
0E
1F
06
0B
F8
FA
FF
F7
FE
01
09
12
FD
21
EE
ED
24
03
E5
02
FD
03
D9
15
05
0D
F2
26
00
04
F5
0B
03
FF
FA
09
F1
E8
0D
FE
03
F8
06
1E
16
04
04
F7
E9
10
1A
02
0A
F8
EE
0C
FB
02
FA
F3
0B
FD
19
EB
F9
E0
0E
1C
02
01
03
0A
0B
F5
0A
E7
F9
ED
04
F1
06
10
FE
E3
0A
EA
04
0A
05
02
FC
04
FE
FD
10
02
FA
E9
0A
0A
0B
0B
F5
E9
F5
FF
FD
F8
02
FB
FF
02
F7
FA
F9
F9
04
F8
FD
02
FA
04
FE
F9
04
04
06
01
FF
FD
00
FD
FF
F8
02
FA
06
FA
FC
F9
FB
FE
FB
00
FD
FA
04
FD
06
06
07
01
FB
02
FE
FA
04
01
FC
F8
04
FF
F9
00
F9
00
FE
FF
F8
05
FF
FF
03
FF
FA
F8
F8
FE
FE
02
00
04
FB
05
04
01
03
FB
FE
08
07
FE
FA
05
FF
F9
01
FD
04
01
FA
FC
04
F8
00
06
F8
F8
00
02
F8
05
FB
07
FF
02
F9
FB
F8
02
FE
06
00
F8
FB
F9
02
FB
FF
FA
FD
FB
03
07
03
FE
FC
05
F9
01
FA
FE
FF
07
05
05
FF
01
02
00
FE
04
FD
FD
03
FF
F9
FC
04
FD
FF
F9
06
05
02
FD
08
02
04
06
03
06
01
03
06
02
00
FB
F9
FC
FF
FD
01
F8
03
FB
FD
03
06
03
F9
FD
FD
05
04
F8
02
01
04
06
F9
01
02
04
FE
F6
00
FC
F9
F7
FF
01
FC
F6
04
06
01
02
04
04
01
FA
08
FA
0B
06
F7
F7
03
00
F7
FC
F9
FB
F7
02
F6
FC
06
FA
06
01
FB
FB
00
04
08
02
FF
FB
F6
00
FC
FB
F9
01
FB
F6
FE
09
FC
04
FF
FA
FA
02
FD
FE
02
FF
F9
04
FA
04
00
05
FA
FB
00
FA
FD
00
01
FE
00
FF
02
F5
02
F6
F9
F7
FC
00
FF
04
F7
F8
F8
F5
F9
F6
F8
03
FA
01
FD
05
F6
F6
FB
FE
FE
03
07
FC
01
FF
02
01
F9
FC
F9
FD
FE
01
F6
FF
FC
F9
03
F6
F8
FC
04
03
F6
FF
04
FA
F6
F5
04
FF
00
FD
FA
F5
FC
FA
01
FA
02
00
F9
06
03
FC
01
F5
FD
FE
03
F7
03
FC
FC
FA
F5
FE
FD
F9
0C
FC
04
02
FF
F8
FA
F6
09
F8
FB
F5
F9
00
07
FB
02
F6
FF
F5
00
F6
04
F8
FA
F5
FD
F1
FF
FB
FF
FA
FB
FF
F4
F5
FE
F3
F5
FB
F6
F2
F3
FD
FC
F4
FB
FB
FF
07
04
00
FF
01
FA
FD
FD
FF
FA
F6
FC
02
F9
01
04
07
FE
07
06
FB
03
04
F9
05
03
F4
FB
FC
FE
00
FB
F7
FF
06
05
F9
FC
04
F8
F1
05
FA
F7
FF
FA
FC
FB
F5
FD
FF
06
02
FF
FA
FC
08
F9
FB
FC
04
FD
FC
FE
F5
FD
FB
FF
F6
F0
F2
F3
04
05
F2
FF
FB
03
FE
F5
FA
F1
03
F3
FD
F9
F5
00
F9
FF
FA
FF
F9
F7
FD
FA
FB
FC
F9
FF
FD
01
FF
FC
FA
F7
FB
06
F5
F9
05
01
F2
F6
F9
01
FA
FA
07
05
FB
07
05
F7
FF
FD
F8
F2
FD
00
02
F9
F9
FC
03
FB
FB
FA
FD
F9
F7
F4
02
FB
FE
FA
00
F7
F8
F4
FF
FB
F0
FB
F8
01
F6
FD
F5
F3
F7
FE
FF
F9
03
F9
FD
00
05
FE
03
FD
04
03
0B
E6
D1
18
02
18
02
FD
F9
05
06
0C
15
42
F8
E8
03
3E
03
FC
15
0A
FE
F3
01
D9
FE
11
03
33
F5
EB
E7
F4
F5
01
FB
03
F9
09
06
05
01
FA
06
07
00
FD
DF
08
01
1F
F9
02
03
05
13
10
09
0F
F3
F9
0E
EA
26
28
F9
FB
FA
FA
02
FF
05
FC
FF
00
00
00
00
FD
FB
04
04
07
F4
EF
08
09
FD
07
FA
01
ED
02
20
0B
FF
EE
F4
0B
F8
1A
F4
06
08
0C
08
00
FC
08
0C
F0
F2
02
08
1B
FC
07
E7
08
06
EE
0E
EE
0C
0B
03
08
EF
DA
00
F3
F3
FE
06
0D
0E
1B
0A
0A
F7
E9
0A
06
F9
FC
DD
F9
E5
12
0A
1D
26
00
12
03
F2
11
1D
06
D8
F9
EB
02
1D
FD
06
0C
FB
FD
20
FF
32
F7
09
02
08
21
DF
09
F8
07
F0
F6
09
FD
15
12
0B
FC
E6
02
FB
FD
11
FD
CD
25
CF
0B
10
06
0B
0D
F6
F6
0A
F3
EA
F3
10
05
0F
4E
09
FC
F0
06
13
F5
FD
04
FB
05
1C
08
11
04
FE
08
02
08
06
FC
FA
FD
FF
FE
08
FA
FA
FE
FA
FA
EF
F4
FD
2B
0E
11
F2
09
FE
FF
04
15
0D
F2
18
FF
FE
0D
E9
F3
EE
06
FC
14
03
03
FD
01
FF
04
F8
02
FC
F8
03
FD
DD
F6
03
04
F6
0D
03
03
EF
F1
0B
F8
0F
0F
0D
09
D7
1D
CE
10
0E
05
F8
03
0B
F1
07
26
BB
39
F3
14
12
01
EE
F4
1E
07
06
FD
FE
F9
F8
05
0E
09
03
06
1D
F4
F4
F9
0C
06
08
12
10
F8
F4
0F
08
F3
F3
F5
00
2C
FA
20
E7
FE
0C
F5
FF
0A
F8
FE
F9
F9
15
12
1C
09
F8
F6
EE
0E
E8
FF
15
F7
FB
DE
FC
FF
06
0D
08
00
F1
03
FA
02
FD
07
07
01
FA
F8
06
09
00
04
F8
0A
FE
FC
FE
02
FA
00
03
F8
F7
04
07
F5
03
08
01
FB
F7
03
00
02
03
F8
FA
04
06
F9
F9
FF
F9
02
FC
F9
05
08
02
02
08
FC
FC
FC
04
06
06
07
05
F6
00
FF
F8
F9
FD
06
F8
F8
F8
F9
FE
02
FE
01
FA
F9
F6
FE
F5
FB
F4
FC
04
02
FC
FB
FA
FA
03
01
04
05
00
FF
03
FE
FE
FE
FF
03
FD
FE
FC
01
F8
02
FE
01
F8
FB
FF
FE
FC
00
F7
FC
02
F4
F9
05
F8
07
FC
05
FD
FE
F9
F8
FE
FE
F5
F4
06
F6
FD
02
05
FE
F8
FA
01
FE
F9
FE
05
F9
FE
F5
FC
F9
00
FE
FD
00
FB
02
05
FD
FA
FA
00
00
04
FB
04
FC
F5
08
03
05
01
FC
F3
F8
FC
09
02
01
01
02
FF
FF
03
FC
FF
01
02
02
00
FF
F6
F4
FA
FA
F5
FC
FE
F9
03
00
FA
F3
FD
F9
02
04
06
00
FA
03
FD
06
FE
03
06
F9
03
F8
F8
00
FE
03
FC
05
01
07
FE
01
09
00
07
07
00
02
05
F8
F8
F7
F8
03
FB
F8
FB
F9
05
02
07
F9
FA
FD
07
FC
FF
02
FA
00
FD
FA
FD
FC
02
00
F8
FF
FB
FE
FF
FB
07
06
05
03
FC
00
F9
02
FA
FA
03
07
FC
00
F9
07
FD
FB
07
04
F9
FF
FA
06
FE
04
06
FD
04
02
FF
00
F7
00
03
06
FB
F9
FB
F9
01
FA
06
05
04
FA
01
FE
04
FF
00
FB
F9
03
FE
FE
F8
05
05
02
00
03
00
FD
F9
FD
FA
05
F8
01
03
F7
F8
FC
00
FB
06
F8
FD
FF
04
F8
06
07
F8
FC
03
02
FC
03
FA
05
03
03
00
FF
FB
FE
00
F9
01
04
FB
03
04
02
00
03
FB
FE
F7
02
02
01
00
F9
06
00
F8
03
FD
FA
F8
FC
FF
05
F7
FF
FD
F7
06
F8
06
04
F6
01
F6
00
FC
F4
F9
F6
FE
FC
FB
FA
F4
FF
05
F9
F9
F8
F7
FB
FE
01
FE
04
05
F4
FD
FC
FB
F4
00
F4
F9
F9
00
F8
F4
02
FA
FA
06
04
05
FF
04
FD
FD
F9
02
03
06
FD
06
FA
06
00
06
F7
FB
FE
03
08
FB
00
FC
00
F4
F9
F9
F4
FD
FC
FB
F8
FE
FD
FA
07
04
07
07
F9
FB
00
05
04
F7
F6
FD
08
02
F8
FC
04
04
F6
01
F7
FA
F3
FF
F6
02
FE
F3
03
07
F9
F9
F4
00
F9
FA
03
F3
F6
F9
00
FA
FA
01
F4
FE
F5
03
00
FC
02
FC
F4
F6
FD
F5
FD
F7
F9
FF
F6
00
FB
05
FA
F8
F8
FC
FF
02
FA
03
FB
FA
03
FD
F9
FE
F8
FA
06
F9
F8
FB
FE
FC
F3
F9
FC
FA
F4
FE
FD
00
00
F3
00
07
F9
03
01
FC
F5
FC
FF
FC
F4
FA
FB
F6
FB
FB
FD
FF
00
05
FA
03
00
10
18
0C
0F
F9
FA
EB
09
EB
F6
08
06
0E
FA
EE
20
12
29
10
D6
F7
0C
FE
15
1F
09
02
03
09
FC
07
F5
D7
F5
16
F1
F4
FD
F8
05
02
06
FC
04
01
05
00
04
FF
FC
08
F9
0C
0D
13
0A
F8
F9
18
FE
FB
04
21
00
0C
12
10
14
02
1D
07
05
E6
DF
05
01
00
05
FA
FF
02
00
FA
FE
F9
F2
FB
05
00
08
F9
03
FD
0F
F1
02
02
EE
0A
09
1A
06
E3
03
DA
17
1B
D0
0F
E8
17
FD
13
E3
F4
01
DB
FB
DA
05
0A
13
20
07
01
F9
FF
11
F4
F5
D2
FA
25
FD
EA
F7
FC
FC
08
0B
05
F8
FE
F3
00
FD
FF
F8
FD
FE
04
24
FD
0F
FE
09
0C
02
E0
03
07
FF
18
08
03
04
04
05
0D
0E
06
11
FE
0F
0E
01
FF
13
05
4C
FB
E9
09
FA
06
08
F6
00
09
01
F7
F6
FE
00
F6
0D
FD
F9
F5
03
F6
F4
F6
F8
F9
FB
F0
00
F4
00
F8
01
F7
F7
07
F2
F8
FF
F2
05
F8
FD
F9
00
FA
FC
F2
F6
05
03
FC
F9
05
FB
FB
05
FE
02
07
00
FA
FE
02
FB
FE
FA
03
F8
FA
F3
FF
FF
FD
F4
FB
F7
07
03
FA
FB
F7
F6
F7
FB
FB
01
F2
F2
FA
04
00
FA
06
FD
03
F9
06
F8
F9
05
04
06
FA
00
F3
FE
FC
F8
F2
FF
FE
FA
01
F9
FE
F6
F5
FB
11
FD
FC
FD
01
FD
FE
10
F6
F5
00
01
F8
FD
F7
F2
FA
F7
F9
FC
F4
FB
08
FC
FB
FF
F3
F6
F7
F9
00
03
02
F5
00
F4
00
FF
03
F6
FB
F0
F8
F9
FD
03
F8
F6
F3
F8
00
F9
FE
FB
F7
F5
F7
03
08
FB
FE
F7
F8
F5
02
F5
FE
F2
F5
F0
FB
FE
FB
02
FB
01
F4
F1
F2
02
FD
F5
FA
FC
F4
04
F2
05
F1
FB
F2
FE
01
FA
08
F9
F6
33
F3
05
F1
0B
FA
F6
FB
F6
0C
FD
0F
D6
12
EC
11
13
03
F5
06
06
03
00
01
E7
FD
09
13
00
F6
F8
06
F0
07
06
04
FD
FB
07
F8
FD
F8
05
02
FC
FA
04
06
05
F7
15
0F
13
F7
FE
0A
01
FC
01
0E
F5
0B
FA
0C
00
FD
0C
F3
F3
FB
05
FA
01
FC
01
FE
07
06
F4
FA
F8
06
F8
FA
FC
04
19
FE
0A
F9
08
F0
09
FE
00
04
06
FD
1D
C8
09
0C
11
F3
F0
F6
DF
FF
F6
0A
16
F6
2B
FE
1B
D6
FD
FD
00
03
00
08
F6
F7
FD
0C
F4
DB
F3
04
09
F3
FC
03
03
0B
01
FD
FA
FA
F9
FB
09
0A
08
F5
06
F8
28
00
02
05
0B
EE
02
FA
0C
ED
00
F1
09
0D
14
0B
ED
F6
00
05
FC
06
FC
FB
09
F8
F2
F1
32
F8
F9
02
FF
02
FD
03
07
08
04
FD
EE
06
FA
09
0B
0F
1C
09
E6
1A
F6
0F
02
03
0F
13
08
05
01
FD
17
F1
26
00
DE
FC
FD
EE
F9
FA
0F
01
0C
07
09
FE
F9
FC
09
0F
0E
01
01
00
FC
F9
06
FA
F9
04
FA
FB
02
FC
05
0E
F3
03
E9
0E
F5
08
02
F9
F8
FC
09
FF
0E
EC
12
EA
FA
20
06
10
09
F5
01
03
07
03
FF
05
FE
05
08
F9
03
FB
09
0B
13
F1
E6
14
00
FF
00
FE
11
11
F9
09
FE
FC
ED
49
0D
1D
F7
07
F2
21
34
0B
10
0A
F8
01
DF
F4
E0
1A
FF
11
04
F5
03
FD
09
09
16
03
01
FF
00
12
05
0A
04
1B
F5
EB
04
F2
F6
08
07
0C
0D
FC
0A
14
FF
FC
EF
05
F5
F9
FA
00
04
FB
FE
01
04
13
F6
0B
F2
EA
14
00
0B
FB
0B
1C
0E
03
02
F9
3B
13
E8
0B
07
0E
F9
09
04
FF
04
FF
F5
FC
08
06
19
09
FF
09
0F
30
E7
29
EA
03
F9
FA
FE
06
0A
03
D2
FA
03
F2
31
02
E9
F5
0B
02
19
0B
00
FA
1E
01
01
0B
F9
ED
F3
05
01
14
F9
06
05
FB
FE
F8
FB
04
FE
FD
05
04
FA
05
E6
01
EB
08
0E
05
F3
13
10
0F
FB
FD
06
EA
11
10
F4
0B
11
07
ED
0F
FE
00
04
FF
04
FA
FB
F9
0B
00
FD
FC
06
FB
F1
16
F9
FD
02
19
0E
F1
00
03
04
FF
06
0B
F9
26
F2
1E
FE
22
F1
0A
FB
04
FF
0B
FA
14
C3
22
0F
07
F3
E8
0F
06
07
F8
19
0F
05
06
EB
E4
F5
04
FB
20
F8
EA
0D
F4
FB
FE
12
07
F1
FF
FF
1A
FD
11
FA
1B
0B
11
E3
F3
08
04
0F
02
FD
EB
06
33
FD
05
00
05
07
FD
06
17
14
EB
01
CE
06
F1
0E
12
18
EC
FC
08
04
00
F5
10
F8
05
01
F7
FC
F6
FA
02
0E
09
F2
F1
12
E2
0A
0D
00
FC
06
F8
00
16
0A
01
F4
19
E8
1A
2E
2D
FA
10
EC
0F
00
FD
09
0C
F8
19
02
15
08
F5
0A
F8
06
03
FD
F8
01
01
FB
03
08
03
01
FF
02
F6
11
02
02
03
17
07
15
F8
14
01
15
18
09
11
0B
09
F6
EA
F8
F8
11
F6
15
08
04
07
06
05
02
FC
FE
FD
01
FD
F9
FB
13
03
13
0B
01
0B
E8
FE
04
FB
1C
0B
12
05
05
D6
FA
EB
07
ED
2E
DD
1C
03
F6
06
F8
E4
29
08
0C
38
06
EE
0C
07
12
0B
EE
02
FB
F9
05
30
0B
F1
04
27
0A
13
06
14
F7
FA
11
FC
09
F2
0F
F9
11
07
0A
09
07
FF
03
1D
F9
FD
0E
14
1A
0F
01
E6
1D
EB
10
15
18
FA
FA
F3
09
1F
F9
4B
05
23
F7
F9
C7
05
23
F9
0E
FA
07
FD
05
F2
07
0E
16
00
F7
0C
F9
10
08
26
D6
20
17
F0
FB
0C
FF
FF
04
FD
FF
14
64
F0
BE
02
E8
20
FB
16
04
03
FA
10
FB
12
F2
F8
08
EF
0D
FD
0C
07
03
FF
03
FA
FB
00
FE
FC
04
FD
04
02
08
F5
13
0F
F3
D8
07
10
FA
EE
02
02
02
F9
0F
10
F8
12
0C
00
06
FC
F2
11
F4
06
FA
FE
FA
07
08
07
FE
FE
03
00
07
FC
0C
F8
0E
16
04
0E
FD
13
F4
E1
02
06
0E
02
12
0D
F7
17
0A
0B
25
EE
FD
05
0B
05
C3
41
CE
1A
02
FD
0B
EF
0B
07
03
0C
FF
14
F4
FB
0C
11
03
02
0B
25
10
16
F7
08
0B
0E
15
F3
F7
F0
E9
FF
14
0B
14
0C
F8
F2
F9
25
10
F6
FF
52
08
FE
0E
F2
13
C9
FB
F1
0F
06
FC
09
F6
1B
11
37
04
39
02
FC
04
04
19
04
12
01
11
01
10
03
0D
09
F5
FF
EB
F6
01
06
0D
F7
01
19
1C
0D
FB
F0
0C
0F
17
07
09
0E
FD
F8
0B
F3
35
EB
FE
03
FF
FC
07
02
FF
04
11
FF
F9
FA
03
1D
08
00
04
FB
07
00
00
00
FA
03
01
FE
02
02
FF
04
FC
FF
FF
03
F0
04
FE
FF
05
00
0E
00
05
FF
08
DD
F2
0E
FE
0A
11
03
15
02
07
04
06
FF
F7
01
09
01
01
07
06
05
0B
08
06
FF
F9
ED
F6
0D
13
23
01
FC
00
05
EE
03
0A
14
FC
03
FD
34
01
00
1B
00
17
03
10
12
04
15
EC
0B
FC
08
0D
FB
03
F8
15
08
03
FF
02
23
01
E7
04
03
12
02
01
F6
F4
FD
08
1E
14
F8
0C
03
11
F8
E6
F2
04
0D
04
01
09
D5
F4
FF
11
FF
FB
12
EF
0B
F2
0B
10
02
09
FA
01
1B
07
EB
2A
F5
C1
00
06
04
0B
02
02
0C
05
FF
FA
FA
FB
05
20
14
FE
16
12
E3
15
D9
F8
E8
09
F6
0D
F5
00
0B
12
EC
D8
0E
20
19
F1
13
E7
E2
13
11
12
0E
F0
0A
0E
EC
08
0A
17
03
FE
F7
06
FD
00
FB
04
05
FA
06
FB
FB
FF
01
00
07
F3
02
03
14
0C
E7
0B
F3
FC
01
0A
32
FB
18
0F
EB
03
ED
08
F3
05
F2
F6
00
07
05
FB
01
FE
F9
0B
F8
01
02
08
15
0F
E7
E2
12
FA
16
F5
F6
0D
FE
EB
16
0C
03
FB
07
11
F0
04
DB
06
F1
1D
17
F3
0C
F4
AD
39
BE
E9
11
09
07
09
0E
0D
01
EF
02
08
C3
00
18
0A
0E
06
11
06
18
F4
FA
02
ED
01
05
F9
0C
03
ED
0E
00
DD
01
FC
00
27
EF
F2
05
04
16
FA
0A
FE
F4
E0
1C
FE
F6
1E
EB
FA
00
04
24
07
49
FB
09
28
05
FA
02
0B
05
01
14
17
EE
05
EB
FC
00
04
F7
11
0A
F7
08
09
03
F4
F7
01
F3
01
FC
FC
10
06
08
10
20
4C
10
06
0D
D3
06
E3
21
F6
15
FB
FB
EF
15
03
E2
F3
F0
02
F4
09
F5
F9
03
FB
02
04
07
02
05
F8
FC
FD
06
F5
06
12
17
0B
0E
F2
01
F8
F4
13
F6
F0
F2
F8
F1
04
21
24
25
F8
E9
0C
09
F6
07
00
01
04
FB
FF
FE
F6
FB
02
00
06
F4
05
05
14
08
17
FC
F9
1F
F7
F5
00
FA
0C
02
07
25
EE
BF
E1
12
04
04
F2
04
0A
10
F0
FC
D5
FE
EC
D6
F0
F4
FE
0D
FB
FD
FE
0D
FD
DE
F7
06
0C
01
F0
E7
F9
13
0E
0E
0C
10
00
F2
0F
07
FF
01
01
02
17
02
FB
06
05
F2
01
F0
1B
1C
FD
16
12
01
0A
E6
08
E2
EC
06
09
FB
13
10
0C
12
03
10
0E
FE
24
0C
FE
F9
06
F3
FE
0B
07
0B
08
FB
FF
02
06
F9
05
05
03
F9
05
0E
0A
1A
04
09
06
FA
FD
07
F0
0D
FA
FE
FF
F8
4A
0E
0E
FD
08
FD
FA
0B
09
F4
03
03
03
0E
FA
F8
08
06
05
04
02
FD
06
02
03
02
FC
00
05
FE
02
FD
06
FD
19
00
EE
05
FE
F3
FF
0A
14
F6
00
07
FE
E8
01
FC
E8
FC
02
12
28
04
07
06
06
F9
07
FD
0E
03
05
F9
00
DF
ED
02
FF
09
05
FD
01
03
01
1C
03
09
02
07
03
0A
1D
FF
0D
34
27
06
01
08
F9
03
33
11
1D
0A
11
F7
02
E8
04
06
FF
01
07
EE
FA
11
0C
0A
03
EE
01
14
F1
F0
05
FD
0F
0D
09
02
FE
00
1E
17
02
03
0F
00
19
F9
F4
F3
FD
0A
FC
30
08
F2
01
F8
FD
07
12
07
EB
05
F5
0D
FB
C4
FA
EB
0E
FE
E3
03
FA
04
1A
0D
06
F2
F6
08
F6
21
FF
07
00
FA
F6
18
09
07
FF
DC
25
E0
04
08
05
01
FB
F4
FE
FC
23
0F
D1
1B
EE
09
1F
F4
02
E4
04
FA
07
08
F3
07
2B
01
07
07
03
12
F5
F9
07
FF
04
FE
08
FA
09
07
FB
06
02
03
F9
07
0C
F9
18
FF
F1
F4
FD
02
02
00
03
09
F1
0C
08
D2
00
FC
EB
03
11
EC
17
00
FB
FD
F8
F9
FF
FC
01
FD
FF
F9
FE
04
F8
FD
F3
FD
08
E4
07
0E
FD
0E
00
03
EE
0F
03
F3
1D
01
0B
FD
F8
17
25
07
FF
FB
31
D3
35
CD
F1
F6
07
0B
FD
F9
05
06
F4
EC
16
F9
0B
F5
05
0C
02
D9
05
03
FA
FE
09
FF
EF
F8
00
0D
0A
F1
FB
F9
0B
EE
0C
F4
0C
EF
00
08
05
EF
00
FC
14
DA
FB
26
09
FE
E3
02
03
FA
F6
02
F6
05
02
E6
22
FF
1A
17
FC
08
FF
04
00
FF
F6
14
F7
FB
FD
0E
11
04
F4
FC
09
FC
EC
18
FE
EE
FF
08
F5
E8
0C
FF
0A
09
F6
0E
FF
0F
B9
01
0D
E4
03
E4
10
02
06
1C
15
D6
0B
1E
03
08
FD
F8
06
FA
01
05
FE
FC
01
07
FB
FA
05
07
04
F7
15
0D
F5
18
FD
02
0D
07
DE
0D
F4
08
04
EF
0E
09
00
01
EF
00
0B
0E
EA
02
00
FF
FD
00
03
FF
04
FF
01
FB
08
0F
FF
FF
F9
09
0D
02
FC
FE
0A
EA
09
0B
F8
03
07
09
FD
E9
FA
ED
F5
FC
F2
01
0B
02
08
1D
EB
EA
E9
D6
05
17
0F
DA
FA
05
0F
FA
0B
EC
06
0A
FC
FE
06
D9
10
0A
FE
F9
0F
09
F3
00
FF
12
E9
0E
09
04
19
0B
EB
20
07
F2
F8
0C
E8
05
FB
02
FE
FE
16
04
FE
F6
0C
00
F1
14
E9
14
0D
D2
08
01
19
11
FA
06
FD
F9
FF
06
FE
03
FB
07
FC
00
07
0B
14
F5
0D
F8
F9
00
00
FF
F7
FB
FF
FF
F9
FE
05
01
04
FD
07
02
07
08
01
08
04
FB
08
07
00
F9
FD
FF
FF
02
FA
05
00
03
FD
01
00
F9
FF
01
FD
FA
01
02
FC
FB
F9
08
03
FC
02
05
FD
01
03
FF
06
04
04
02
02
06
06
FB
00
06
06
06
FC
04
F8
08
FC
07
02
FF
00
05
04
04
06
05
F9
07
00
FC
04
05
04
FE
FF
F9
FB
FD
FE
00
04
00
F9
01
FB
FF
07
04
FD
FC
03
FF
02
FA
FD
00
FD
FB
FD
00
05
02
FF
04
00
02
F7
F8
FF
FC
00
FA
F8
04
02
FC
F7
F9
F9
F8
06
03
05
FC
F8
FD
FD
02
07
FF
FA
FA
01
F9
F7
06
FB
01
FC
FB
02
FD
03
04
FE
02
FE
FF
04
FD
02
07
01
FE
00
FB
04
F7
FB
FD
FC
00
FB
FA
FE
06
04
FC
05
03
FB
06
03
FC
07
04
09
06
F7
F9
F4
07
FB
03
F5
F9
F6
F5
F6
02
FF
FE
F5
F6
00
F5
F7
FD
F8
01
05
FD
F9
FE
01
F9
FD
FE
F8
FB
FB
01
FF
00
F8
FF
FD
07
07
FA
07
06
01
F9
FF
FA
00
FA
00
03
F7
FC
03
FC
F7
F7
F5
01
F4
F8
F9
FF
F3
FD
FC
F7
FF
FC
FA
FD
00
FD
F6
FD
FC
07
F9
07
FC
07
FF
00
FD
FC
04
F4
FB
F4
F7
FA
FA
02
FC
01
FF
03
FC
FE
02
FB
F6
FF
00
FA
FB
FB
03
F9
FF
FD
F5
F7
F8
F5
FA
08
FD
F9
FF
03
FF
FC
00
00
01
FF
F5
F5
F6
02
F6
00
07
04
F3
FD
FD
F7
FD
F4
F7
F5
F8
FC
00
FC
FC
FF
00
FA
FF
F7
FF
07
F7
03
F9
FB
F8
F4
00
F4
00
01
FE
FF
FE
F5
F8
F9
02
FD
00
F6
FB
FA
06
01
FE
03
F7
FD
F7
F3
03
F3
F5
F4
F5
01
FC
01
00
FB
00
F0
E9
EC
10
0A
10
FB
F1
E7
FF
F1
11
08
03
EE
C7
05
E0
20
1C
FA
F6
F3
00
FD
0B
F7
0D
02
02
F9
FF
06
07
09
F0
F4
FA
FE
FB
FD
00
F9
01
F9
FB
02
F9
FD
FC
10
06
FD
ED
05
21
FB
11
05
15
05
0C
0A
FB
02
04
F2
FF
14
FF
03
21
01
0C
07
FD
FF
07
FA
FB
08
0A
F8
FA
F8
08
13
11
08
06
F9
EA
F0
F7
F3
0D
0E
1E
01
05
F9
FB
F0
EE
F7
FE
D7
F3
EF
08
F9
01
EC
24
E8
19
ED
07
00
01
FA
05
FA
07
02
01
F3
FE
0C
09
F0
0F
FB
FA
D4
03
04
04
08
03
F7
E8
FC
0E
14
1F
FF
07
0B
F6
06
FC
E6
0C
18
07
0C
07
C5
0F
FF
F3
08
08
01
02
10
17
04
F2
FC
07
FA
FF
DB
01
03
F3
FA
D2
07
F5
FE
0C
08
02
0A
FE
FC
EB
F9
FA
12
0C
11
08
07
14
06
1C
17
11
DD
09
0F
04
1E
07
F5
18
F8
12
F7
DF
E4
0C
0C
ED
1E
FA
FC
F6
0C
E6
E9
0C
0B
08
E9
03
09
05
0E
05
07
FF
FA
FC
06
FA
07
04
05
FC
07
06
06
06
F6
FE
E7
00
04
FA
F6
FD
FF
F1
0D
FD
15
F1
0E
06
FE
16
F9
E5
04
EC
FC
03
04
F8
FA
05
06
F7
F9
02
06
03
F2
01
FC
07
04
EE
F5
FF
06
04
08
E7
08
FA
F7
12
EF
1A
45
16
0B
0D
16
F5
0A
0E
11
FB
12
0C
FE
06
E5
04
20
FB
05
F0
02
02
F1
04
19
FA
F5
FE
09
0C
16
FF
0D
04
02
12
F9
FC
F1
EC
07
F2
F6
12
FE
06
F4
F2
EE
E6
1A
23
E8
06
33
F3
06
F0
E5
FA
ED
F0
FB
EF
00
12
FC
F3
21
06
48
08
27
EF
F1
27
F3
14
06
FF
05
11
FD
FF
0E
FA
06
F3
FD
FC
F8
01
00
F9
05
04
05
FB
FD
06
FB
04
06
05
04
04
01
06
FD
FF
FB
04
02
FA
06
03
06
F8
FC
FC
06
03
FB
00
05
FC
F8
FB
F8
05
02
FA
FF
01
FF
FD
03
FE
FE
FD
FA
06
F9
FE
03
03
06
FE
F9
FB
FB
02
F9
FA
FA
FF
02
00
FE
04
03
F9
04
FE
FE
05
06
07
01
FF
F9
01
FC
FF
07
FD
FC
F8
01
02
04
FC
F9
00
F7
06
06
01
FA
08
FA
01
F7
06
06
FD
08
FA
FA
09
08
01
FA
F9
06
08
FC
05
FD
01
F7
FB
F7
FB
FC
FD
FE
02
FD
04
05
F8
04
F7
FA
01
05
F8
FE
04
FC
FA
05
05
FB
FA
FA
03
FE
00
03
04
FD
F7
FA
03
FF
FE
FA
FA
FB
FD
00
06
F8
FA
F8
01
01
02
FF
04
FD
07
00
F9
FE
F7
00
03
00
F8
01
FD
01
FD
03
FD
F9
FC
02
F9
03
F9
F7
06
FA
02
FD
F7
F3
F4
02
F2
F5
FF
F3
F6
01
FA
FD
04
F7
FC
F9
FD
F9
FE
FA
F1
03
03
07
FB
FC
F7
F7
F3
00
FE
F2
04
FB
F7
06
FB
00
06
FC
F8
F9
FD
FD
00
01
04
06
F7
FD
F6
FF
F7
06
FB
05
04
FC
FE
FF
06
F5
F4
F5
09
F9
F1
FD
00
FA
03
00
FA
F9
01
FB
06
07
06
05
FE
FC
04
FF
FD
FB
EE
01
00
F4
F9
F7
F5
FC
FF
05
F8
FD
03
00
FD
FB
00
FC
F9
00
FB
FE
F0
FB
FB
F3
F2
FF
F3
FD
FF
F9
FA
F7
02
01
F4
F8
FC
FA
F3
F9
FA
F7
FC
FE
FB
FC
F8
F0
FF
FE
FC
F6
F7
FE
01
02
01
FE
FC
00
F9
F5
FF
F4
F1
F6
F5
F5
FE
FF
06
06
FA
FE
00
F5
FD
FF
F8
F7
F9
F5
FE
F9
FE
F8
F7
FB
FB
F8
FE
00
F8
F2
F9
00
FB
F8
FC
FF
F7
F7
F2
03
F6
04
06
F4
FD
0C
EB
28
01
0F
FC
F5
0E
F6
08
0B
E3
FF
FA
EB
EF
10
4B
18
FC
02
02
FE
F8
F9
18
05
FF
FF
03
0E
FE
F3
0B
04
FA
FA
05
04
06
FD
05
F9
04
09
06
04
0C
F4
FE
FF
ED
F5
0F
08
FC
00
08
0B
19
FB
0C
F1
F9
F5
F0
02
E9
FB
11
22
30
06
08
FA
01
02
FE
FB
03
FC
05
04
06
F8
FF
0D
F0
14
F1
08
EC
FC
03
08
28
F8
04
FD
04
1B
00
FF
F2
17
3D
F0
0E
F4
06
FD
19
12
E3
47
19
32
EE
DF
0D
FA
FF
F1
1C
06
04
0C
FC
22
FC
EC
05
25
EF
F9
00
F8
07
08
15
F9
07
FF
1E
1B
0C
06
04
00
F8
F9
E1
17
02
FD
03
28
0D
F7
F8
05
00
F9
02
05
1E
FC
F7
12
01
E1
03
EC
09
17
FD
09
BA
02
21
FF
0A
FF
F9
14
F1
14
05
11
07
FF
F4
16
12
FE
05
30
FF
03
FC
F7
06
02
00
1B
00
F1
0D
0A
11
EF
DD
F8
D4
11
FC
02
F8
F2
01
08
04
FF
07
0B
0B
DB
04
01
FA
DD
02
FA
FD
FB
01
FA
05
00
F8
FA
FF
FA
08
18
F2
ED
E8
EB
12
0E
11
06
07
F4
F9
F4
02
FC
F7
0C
00
1A
12
07
11
F1
E7
06
03
02
04
06
F5
05
FA
05
F9
FC
02
22
14
00
F1
F7
F2
06
07
06
04
FA
0D
FF
05
E3
F5
27
01
3B
F6
F3
E9
06
0C
F7
22
FA
D2
25
ED
12
FE
1F
09
1D
FD
FE
F7
03
F8
07
F8
1D
0C
E9
00
00
FE
D8
14
0A
0A
F5
F0
FE
FC
0D
0C
06
03
F5
13
06
EE
F9
FD
F0
02
0E
18
03
07
DA
F0
0A
F6
0E
07
E3
E9
09
24
03
0D
FC
F5
2E
FF
03
06
0B
19
F8
2D
00
F0
04
08
14
04
05
F7
F0
FD
03
09
06
0C
F8
F7
ED
F1
FE
09
1D
0B
F8
FC
FC
00
F0
10
04
0F
07
DF
FB
E0
18
34
F3
06
03
FD
E5
03
F8
F6
03
06
0F
FE
FD
01
F9
F5
EB
FF
05
03
FC
FE
01
F8
FC
00
00
FB
FF
F6
13
0A
F2
F9
0B
1C
0D
09
0F
02
03
FC
FA
0A
FC
FE
0A
09
27
11
11
0A
F7
07
05
FD
08
02
00
FA
F9
F2
07
04
02
FD
15
02
07
17
F0
EC
EE
06
F5
12
0C
15
FD
FC
FF
05
EB
F5
0B
0D
D6
E5
0F
FB
F0
11
ED
20
15
11
14
2C
10
F7
13
08
F7
02
02
FE
F5
FF
3B
01
E8
FD
01
FA
C6
04
02
11
0C
FA
F5
E5
FF
01
0E
16
F3
02
01
10
01
0D
EC
11
1F
14
12
00
A7
09
15
02
04
19
F4
F8
23
0E
0A
0A
07
F5
02
F7
E2
04
F8
F1
F6
EE
F6
F7
FF
FA
FF
FA
14
04
F5
F3
F6
FD
0D
0F
07
0B
02
06
08
E2
F2
02
F5
05
18
05
10
18
FA
0F
05
36
FB
20
E6
E6
FC
19
08
FB
0A
0D
FC
10
02
FD
06
05
F6
00
02
03
FF
FB
FB
FE
03
FB
02
07
FE
01
06
03
F8
02
14
F9
0A
02
FF
ED
11
FF
17
FF
FC
FB
F3
FE
02
F3
25
27
21
19
15
02
EC
E6
04
F9
04
01
02
F2
07
F2
FA
07
FB
FF
06
03
0A
1A
E2
03
1C
17
FF
07
0B
F0
F9
F8
FF
FC
11
F3
FF
09
01
DC
32
E8
07
07
09
F2
0E
D4
1A
18
0C
14
25
00
02
F3
07
08
07
00
11
0E
DB
F2
FD
F7
E4
0D
05
07
0E
EF
FE
FE
17
F6
0C
F7
EF
EE
06
F8
07
01
FF
3A
08
05
F9
FF
9E
F8
26
F9
27
03
FA
FB
10
04
06
14
FE
01
FE
13
EA
F9
EB
E9
11
09
FF
EA
08
F9
01
08
00
10
ED
04
F6
0B
04
03
ED
FF
