0A
03
25
FE
FF
F6
F1
10
F2
F4
05
01
10
04
01
EC
E5
19
FE
F7
DA
03
E6
00
FD
0B
0E
F0
FB
F1
1A
F1
02
F3
0C
D5
FA
FE
FC
08
03
FA
03
02
01
02
08
04
05
F9
04
FE
03
0A
01
0D
0B
D9
09
00
20
0A
09
0E
EB
0B
11
12
00
09
0D
01
10
FA
F9
F8
FB
05
02
00
F8
02
0E
00
FC
07
F9
0E
F2
11
11
1F
E8
08
EA
FF
03
E6
04
F2
F4
04
F6
0C
F4
EE
0D
02
03
F3
08
F4
20
03
2B
FE
EA
E8
0B
FE
FD
FC
00
F4
F5
F9
0C
F4
09
F3
EC
E6
0B
E0
08
FB
05
FD
04
FC
11
E8
07
E1
FC
04
00
FA
01
F2
11
F4
ED
FF
05
F7
F8
0B
0A
FA
10
09
F8
E0
06
FB
F3
0A
00
F0
F2
00
08
F9
0B
21
01
F4
03
1A
EE
13
14
0C
0B
04
F1
07
FD
0A
FA
01
F1
FD
F4
08
05
05
F8
F7
06
06
01
FA
06
05
F9
FD
00
05
F9
FB
FB
06
01
02
00
02
07
03
F7
FF
06
01
FF
00
06
05
FB
FE
00
01
FB
03
00
02
F9
06
04
F9
03
05
FA
00
04
07
FB
F8
FE
07
04
FD
01
F9
01
FD
03
FF
FC
F9
FD
FE
01
06
04
F9
03
01
FE
01
FA
FE
01
FB
00
01
07
FE
04
01
F9
02
04
FD
04
03
03
F7
04
F7
05
06
F9
F8
03
FE
01
FA
FC
03
FF
F9
FA
01
FD
F8
FE
FA
FA
01
FB
03
F8
02
FA
FF
FA
04
FB
F9
FF
04
FD
FF
FD
04
FF
FF
FE
F9
04
06
FA
05
02
F7
F7
01
02
FF
00
F9
FF
04
00
07
FB
03
FA
04
FC
FF
06
02
FF
05
FF
FC
07
01
01
03
FF
03
FF
07
00
F8
FE
04
04
FB
F7
03
04
03
FE
04
FF
FA
01
F7
FE
FD
F8
00
F7
FC
FD
01
FF
00
FA
01
03
F7
FE
00
F5
F8
F7
F8
00
F6
F6
08
F5
03
F9
F7
F8
0C
03
FC
03
03
FE
01
04
FD
F9
FE
FF
02
F5
FB
F5
FC
F6
F9
FF
01
FD
FF
FF
FF
FA
04
06
F9
FA
FD
FF
00
FB
F7
FD
FC
FE
F8
F8
01
04
F7
08
00
F7
00
F5
00
F8
FF
F5
F9
01
FB
01
05
F9
FB
03
07
05
03
00
06
01
01
03
0C
FD
F7
03
FB
FC
F9
FF
03
03
02
F7
FB
02
F5
03
FC
01
FE
FC
FD
FC
F6
FB
FD
F7
F9
FE
FA
FF
FF
F6
F7
F7
F9
FC
F5
FD
F6
F5
FB
F6
FC
F9
FD
01
F5
FD
FB
FC
F8
F9
02
F8
03
02
FD
F7
F8
00
F9
FF
F5
06
F7
FE
03
F9
FB
F8
FD
03
FD
F4
FC
FD
F8
FD
FF
F8
F5
F6
F9
01
F7
01
01
00
FD
FE
01
FB
FC
FE
FE
F7
04
04
FC
F6
04
F5
FE
F4
FA
FE
FC
FE
08
F3
FB
F8
F4
FC
F6
F9
FA
F9
F9
FE
FE
06
00
00
F6
F8
FD
04
F5
FD
FD
00
00
FC
FA
F7
FD
FC
FC
F7
F9
F2
F9
02
FD
03
01
FE
FD
07
FD
04
FB
FC
FB
FA
FF
01
02
05
FD
FB
02
FB
FE
F0
FB
F9
FF
02
FE
F7
F2
02
FF
FC
F6
FB
F9
FA
03
05
F9
08
FF
00
07
03
03
04
03
05
02
FE
FF
FC
FC
FD
F5
05
FA
01
F9
FF
FA
00
00
F2
F6
F2
F7
F8
F4
F0
01
F4
06
F5
FE
FF
FA
F1
F5
01
FD
F2
F8
FD
F5
F1
FD
FA
F9
F8
FF
FC
02
FD
02
FC
03
F6
FC
01
FC
FC
FD
01
F8
F9
FA
F6
FD
F2
02
FE
00
F3
00
FC
FE
01
06
F1
FB
F3
FC
FB
03
FE
FF
FA
FC
FC
FC
03
06
F7
FF
FF
04
01
03
FA
FA
F2
FD
F9
FB
F7
F3
F2
F0
F1
F9
F9
F8
01
F7
FD
F5
00
00
FB
03
01
08
81
05
F1
03
20
08
F3
F1
F7
0C
F7
19
3E
FC
FC
0D
04
F4
F0
FD
E1
F3
FE
E6
04
E6
FB
08
16
2E
F5
FC
15
10
0C
FE
FB
07
F9
07
07
01
04
FA
FD
FD
FE
F0
01
2D
1F
0A
F2
01
0B
E8
09
FE
F4
E7
E2
DE
12
13
0E
15
04
DB
FF
16
FB
F9
F8
06
01
FD
04
05
FF
FA
01
05
01
07
EA
1B
F0
E7
15
1C
04
F5
EC
F4
FB
0B
FE
09
DC
F9
12
14
EF
03
03
EB
00
E3
04
0C
D3
00
B6
F9
0B
16
27
E2
E4
FF
FC
E9
F6
F2
12
10
1D
22
01
0D
01
E4
07
F7
0B
0F
F5
11
0D
E8
02
02
11
EC
E7
EA
FD
E6
0F
F4
F2
0B
FC
E4
FD
12
FF
F1
24
37
02
E0
0E
FF
0B
EF
FA
E7
F5
F8
FB
12
1B
01
12
1E
F1
06
F5
00
F8
01
DB
17
F9
FD
08
01
FB
02
FE
08
E0
F1
11
14
F2
F2
F4
FC
12
12
FA
F0
0C
FC
EC
10
06
1D
F0
0E
10
14
08
FF
FF
08
FD
FB
F3
00
09
12
25
FF
F7
04
07
EF
03
FF
FC
07
03
FA
FA
04
04
FC
FF
FC
05
F0
06
FD
F9
04
22
03
0E
04
F1
01
05
F4
FF
01
0B
FC
0D
0B
17
03
F4
0F
09
07
05
FB
FD
02
FC
FE
04
02
0A
07
01
FC
FA
DC
0D
04
FF
02
EC
04
F4
F7
F4
04
17
10
0F
15
CC
D7
EA
F9
10
F5
13
01
0D
09
C7
2C
F3
F0
FF
08
FF
FC
00
02
FA
FC
FE
04
25
F9
22
F0
F4
F7
FE
ED
00
F6
E7
03
0C
FD
1C
00
EA
F3
00
F3
0A
03
08
FF
02
00
21
01
10
01
02
0B
13
F8
12
F4
1F
FD
FB
0A
04
00
0A
FE
F8
0A
0F
EB
02
0E
F6
F4
08
09
04
F6
0C
0D
FF
EE
FC
FA
FE
1F
0B
F6
F9
F5
F0
04
06
F9
FB
03
00
0C
00
02
F7
F3
FA
01
F5
F6
FB
FE
FC
05
FC
FF
F2
03
01
FE
01
F5
FD
02
04
FA
FF
02
00
F3
08
F7
F7
03
00
00
06
02
05
07
FF
FA
F8
02
FE
FE
05
01
06
00
FA
FA
F7
F8
00
02
FE
FC
04
F7
F8
00
FD
02
F8
03
FC
F8
03
F9
04
00
08
05
FC
07
03
FC
05
01
FE
06
00
03
F8
FF
02
04
FA
FF
FC
04
FE
F8
02
00
06
FC
F6
F9
FA
FA
03
00
F9
F3
FC
FC
FC
04
02
00
02
F8
F8
F8
F7
02
FD
00
04
00
03
00
FA
FB
F7
F6
FE
02
FB
FA
05
F9
FE
03
03
F7
FC
FC
02
01
FC
FF
03
FF
0A
06
FD
F9
FF
FE
00
03
03
F7
FD
01
08
FF
05
FA
F4
FD
FE
F4
FE
06
F8
06
01
F9
FE
FB
05
F8
F9
FE
F6
F6
01
04
FA
04
F9
FA
02
F5
F7
FF
FE
FC
05
FF
02
F7
06
00
F7
00
FB
00
FC
FF
FA
FD
F8
F9
FF
FB
FE
FE
03
FF
F9
04
FE
FD
06
02
FC
F9
05
F9
FA
FC
FE
F7
01
F8
04
FE
FF
FD
01
FE
04
04
F9
FE
07
FE
F9
06
04
FF
06
F7
FB
FF
05
04
F9
05
04
F8
F8
FF
FB
FB
02
04
FF
04
02
08
02
FC
06
01
04
FF
FC
FB
05
01
FD
06
FB
01
F9
FA
F8
F9
F8
FF
05
FA
05
FA
F7
F7
03
FA
07
08
FE
F9
F9
03
02
02
FC
04
F8
05
F9
F7
FF
FF
08
05
F8
03
FB
FA
03
FE
FE
05
05
02
FD
FA
05
03
FB
06
07
FB
F7
FA
06
02
FA
FB
F8
FE
01
F7
00
02
F7
FB
05
FB
F7
FD
FC
01
FD
07
05
05
05
FB
03
FD
FA
FD
02
02
06
F9
04
FC
FA
04
F8
F9
06
01
06
FB
FF
F9
03
F9
01
04
FC
00
02
FD
02
01
05
FA
F8
00
FC
FB
FD
F5
F6
F8
01
F6
FC
F3
06
FD
FD
07
F8
FD
FB
F9
F8
FA
00
F3
FF
F9
FB
F3
F4
FF
FA
F9
FF
F7
FA
FD
F7
F9
F9
07
06
FB
FD
FD
FA
04
F9
FE
01
03
FB
F5
03
FD
03
FE
F6
02
F8
F9
F4
FC
FC
02
FF
02
FF
01
FB
FC
FC
04
F6
FF
FA
FA
F9
03
05
01
06
00
FE
02
FF
F9
F6
FF
F9
00
FB
01
FA
F5
05
F9
FC
F9
FA
FB
FB
F6
FA
F6
FE
F6
F9
F6
FF
F9
F8
02
F4
02
FE
F7
F7
FD
00
FF
F9
FF
F8
FE
FB
F6
FB
FA
FE
F9
03
01
03
04
01
02
FA
F7
FD
F8
FA
FA
F3
06
F8
F9
FC
F8
01
FF
03
F9
FE
FC
F7
FF
FE
FE
FE
05
FE
02
F9
F5
07
FE
02
FA
F5
FD
00
F9
F7
F9
F4
FE
FE
F8
00
FA
FA
FB
06
F8
02
FF
00
F6
F3
F4
FA
00
FE
FE
FC
01
14
15
F2
13
E7
F6
0A
D8
0B
FC
0E
0D
05
12
FA
FE
18
19
02
00
0D
17
F8
0E
FE
FF
F7
07
0F
10
16
FF
FD
FE
08
05
09
FF
F8
04
FE
F8
FA
00
01
FB
06
00
FE
FD
07
FE
FC
0C
0C
FA
07
04
04
F6
EF
06
F3
11
09
F4
07
12
21
F6
00
FA
FF
01
04
07
FB
FC
03
FA
FB
00
FA
F9
FD
FD
0F
F6
02
0B
F5
02
FC
02
0E
FE
E8
EB
11
0A
0E
19
CB
07
DF
CB
15
D0
0F
ED
15
04
F3
0E
DF
0A
E2
D0
24
BF
14
20
F7
06
0B
0F
15
FB
1D
03
0A
F7
16
FB
FD
05
08
01
05
FE
08
0A
09
04
02
F5
EB
08
0A
F9
09
0D
04
FC
EF
F8
22
FF
EE
06
05
F2
0F
17
0C
01
F6
0D
19
FC
15
08
22
0A
02
0A
0B
20
FA
F4
FB
FE
03
02
01
FA
08
02
04
10
04
06
06
F9
F5
F7
F2
F9
F6
F7
F1
FE
F8
FA
FC
FA
FB
F2
F5
10
F5
03
F8
F9
04
02
F4
02
F4
FF
03
FB
F9
FD
F9
FA
EF
FE
FD
F8
F1
FC
FA
05
FE
F8
07
01
05
07
05
02
01
08
FC
FD
05
F7
06
FA
F3
F9
04
01
06
01
04
06
03
F4
02
0B
FB
02
F8
F7
F7
04
FF
04
05
00
07
FF
FD
FE
FC
05
08
F9
04
01
FC
FE
FC
FE
F6
FA
F2
F4
F5
FB
FF
05
F9
FE
01
FE
05
F5
FF
F6
FF
F9
00
06
F6
FF
03
00
FC
04
01
F6
FA
01
F9
F3
04
F1
F6
FC
FC
F8
FA
F1
FE
FB
F9
02
FB
FA
FC
F6
F3
FA
01
00
FC
F6
F9
04
FB
FA
08
F4
03
FA
F4
F9
F2
FD
02
06
F9
F6
10
FD
09
F6
F7
FC
F5
09
04
F6
F5
FC
FF
FA
FE
FC
FB
09
F8
F8
FB
F5
F2
FC
F8
04
FC
F6
01
06
FF
FE
F6
00
FA
02
0A
04
0F
FE
29
23
0E
E9
02
EB
04
FC
0E
00
1E
2C
04
05
FF
F3
0F
09
0F
19
FF
0E
00
F4
1A
03
F2
F8
12
FE
FD
02
0C
FA
04
05
FC
FF
FA
03
FA
FC
FB
04
04
00
04
F4
05
E9
05
FA
FD
0C
0E
05
02
01
0E
00
1B
F5
0F
02
16
F5
04
08
03
FA
FF
FC
FE
03
FD
FB
FA
FE
F2
05
F8
FE
FF
04
02
0B
09
F3
F4
0E
F4
F7
F8
05
0C
03
01
04
3C
0E
07
F6
0C
D7
00
EA
07
06
DB
11
17
0C
17
15
17
E5
07
1B
04
FB
00
07
26
01
1B
09
0D
E9
09
F2
0F
F8
FA
F9
16
F7
FC
FE
07
FD
F9
F4
08
FA
03
F2
FD
F4
F1
FE
F8
F4
10
FD
07
0D
0F
16
2D
13
06
F9
F3
14
0C
E6
09
08
1D
FB
FF
FC
0E
2F
06
FB
0B
04
07
FD
F8
F8
F7
1B
02
0B
09
04
03
FB
F9
06
0C
08
EF
08
07
FC
F3
04
0F
26
FA
00
0A
FB
D1
DB
05
04
02
0E
F2
07
17
FE
08
00
F8
05
F5
FB
F4
FF
F3
01
0F
14
FE
FA
08
FC
03
04
05
FB
03
03
FE
FF
FD
0C
05
08
FF
06
02
0E
17
0A
04
FF
F9
17
06
11
D0
17
06
FA
EB
02
09
FC
FE
FC
FE
FC
03
FD
FA
03
FA
01
0A
FF
FC
F9
08
06
00
02
EB
07
0C
03
00
0F
F9
05
FC
01
10
12
38
FE
FA
F8
09
2C
05
28
F8
10
00
E7
F0
03
E3
EA
F2
1C
0A
FA
0E
01
02
F8
E7
18
E9
F4
F7
0C
0B
21
F9
FD
08
09
02
0B
FB
22
0B
0B
03
F2
09
00
F5
13
03
1E
FF
F5
F5
0D
18
FE
FF
0F
F7
D9
DC
05
F8
00
0C
F5
0E
1A
04
02
F3
0F
F0
05
02
F5
F9
0F
09
F5
F9
FD
0C
01
08
F4
05
F6
11
FE
02
11
06
00
0A
FE
1C
06
F3
1B
0D
F2
06
02
01
0B
E9
E4
E1
0E
12
07
E0
0A
F9
07
11
11
05
08
F8
0C
1A
07
EC
F1
F6
04
0D
FB
FA
F8
F8
00
05
06
FE
01
03
FF
FE
06
FD
09
01
FD
02
14
F2
FF
07
FF
FF
04
17
FB
F0
15
F4
F9
FF
15
13
F7
08
03
07
04
04
FC
F8
00
FC
05
00
06
0C
04
FA
03
FF
FF
05
0B
11
E7
FB
10
0B
F9
0C
F3
07
F7
1D
05
DF
1B
DA
FF
0B
ED
FC
F8
03
08
28
F9
2A
1B
DF
E8
08
00
0B
F7
FE
06
F7
15
ED
08
FC
FC
FD
EF
16
F9
FC
FE
FE
01
05
17
F0
F3
0B
09
F3
04
11
0F
FE
24
07
FF
FD
FA
E1
FA
16
FD
18
FA
E4
EA
EE
38
0E
ED
F4
EB
09
13
00
0A
ED
03
F8
E6
0D
FC
FC
FE
01
0A
04
F6
09
08
17
05
0D
F0
FF
02
0A
06
0D
15
F5
FC
EA
05
E6
0A
15
0B
E4
02
F3
0F
E9
0A
06
14
F9
00
F0
FC
14
F3
F9
F9
07
FD
0D
FF
FF
01
1F
0F
FD
18
FC
2B
0C
00
FA
04
FE
F9
03
FD
06
03
07
FF
00
01
0E
FD
0C
E4
09
FD
F2
10
0E
01
00
01
16
11
10
06
02
F9
E4
06
F9
0B
13
FE
02
05
02
06
04
FD
06
00
09
FB
FD
FF
0D
0F
06
04
01
FE
EC
FA
F7
10
FF
13
19
FE
03
0A
F5
C3
FD
2B
06
21
05
E3
FA
01
DA
07
F4
06
2F
2A
CB
13
F5
14
02
15
19
FE
EA
F8
0D
08
03
26
F7
15
12
0F
04
04
03
F8
0C
E2
FE
FC
0E
FC
13
0C
13
ED
0E
01
15
03
0A
0C
F6
FF
1B
F9
09
01
19
E2
FC
11
06
F7
EB
EF
F6
FF
16
09
0B
0B
F6
E9
FC
04
FE
0B
0E
16
F8
02
FA
FD
F5
0B
FA
0D
F6
08
0B
0E
FF
0A
DB
14
D8
18
0E
09
07
F7
01
14
DC
2D
1F
F3
1A
F7
F5
DC
0E
03
10
FF
10
E9
22
00
0B
F6
F3
0F
0D
14
03
14
07
FC
04
FC
F8
03
F8
01
00
07
06
FB
04
00
0B
18
10
05
EE
ED
ED
FF
1A
0E
0F
07
0C
F1
06
0C
12
24
F9
07
FE
F3
0F
00
06
FD
FE
05
03
08
07
07
07
FC
EF
00
FA
0F
01
F0
FA
0E
F1
15
F6
F2
0D
E2
0A
07
FD
08
F7
24
0F
1F
11
10
08
EB
FD
02
0E
F5
D4
0C
E7
30
28
E5
0B
F6
13
00
1F
0C
06
ED
F5
1B
14
15
01
19
01
05
12
0C
EC
06
FB
DF
1A
FD
FB
05
EB
09
09
F6
1A
F3
F2
02
FB
00
00
03
25
F5
22
28
E5
E2
0B
E4
F3
04
DA
F7
F8
05
14
02
2C
05
0C
21
09
09
08
06
13
FC
F4
0F
FC
06
FB
F4
EA
11
0D
FE
10
06
F8
FC
FE
06
2D
16
D8
F2
07
1E
0C
1C
1C
FF
18
00
F4
EB
16
01
DC
FF
10
01
04
03
02
01
F2
FE
FF
0C
F2
FD
0A
FD
FD
FA
FD
05
F9
FF
04
00
FC
00
01
FA
04
1B
FE
03
06
FC
F8
0C
09
0F
FB
01
02
08
09
04
FE
FD
03
DC
F1
F9
06
19
E9
03
FE
FF
04
07
06
FC
F9
03
03
05
05
00
08
04
F6
F8
EB
FF
13
FC
02
15
F9
09
01
00
00
03
14
FA
21
19
F5
1C
08
18
00
0F
DF
EF
07
05
0D
F6
F5
0B
02
03
07
07
12
F5
FF
03
0A
09
07
FF
21
01
F6
0A
0D
09
F8
F4
08
0A
F8
13
14
F5
FD
0C
04
09
FA
07
F5
EE
0B
0A
0B
0C
F6
14
FE
0B
F1
01
EE
F6
F5
E6
15
1C
11
08
E7
0C
F1
13
FF
00
FE
0A
0F
0A
F2
08
FC
05
06
F6
01
F4
F7
FB
0F
13
F7
06
06
14
CD
F4
19
C9
02
EF
11
18
FD
06
24
17
FA
F1
F0
FA
EF
1C
DB
19
01
FB
05
F7
E3
07
E8
FE
1F
F1
E9
15
FD
FA
08
FD
05
FA
04
06
F8
FA
FE
FF
05
FA
FF
1D
05
05
FB
E7
0A
14
1C
04
07
FF
F1
14
11
06
EA
14
FE
06
FF
F7
0A
F9
FB
04
F9
F8
01
FF
FE
06
00
FC
0A
01
FA
06
0E
F6
11
00
FA
FA
F5
00
EB
FC
FC
05
09
06
1A
18
1D
CE
F2
EB
00
FC
13
1D
0A
13
C4
0E
F1
EB
F8
E5
E8
08
04
09
08
05
F4
03
D8
13
1C
EA
E6
FE
FC
0B
01
17
FA
06
FD
F7
18
16
10
EA
05
F7
06
06
0A
EC
FB
18
F8
04
0F
12
04
FE
F7
1E
0D
D3
11
E7
F2
F2
0D
F8
14
FB
FC
0A
1C
1C
F5
34
FF
F9
0C
1B
EF
F5
0F
08
FF
F6
09
E6
FD
17
08
06
EB
0B
F5
FE
FF
FA
F1
16
F5
19
F5
FC
09
F6
F8
12
E2
15
1F
EB
09
16
17
FF
0B
04
11
05
0B
01
13
05
01
07
E0
E1
F1
ED
18
09
F3
04
FB
01
01
00
FC
FD
FC
FD
00
03
05
F2
F0
1D
0F
FC
EF
FD
15
FF
07
FA
05
FA
FD
EB
15
0D
0D
14
FB
15
04
FF
FF
FB
06
FD
FC
FA
03
09
08
08
03
FF
F4
FD
05
00
F9
01
0F
10
0E
FC
EB
0D
FF
FC
F9
02
F8
13
1C
FE
01
16
09
FA
FB
FA
FE
EF
0C
03
E2
08
CE
07
FE
E7
12
FE
03
07
03
07
15
FD
F7
FC
F8
EE
17
FA
0B
07
08
0E
0B
03
0F
09
FE
0A
11
FC
03
F1
F2
F6
0A
FA
D8
03
0D
17
F9
15
FF
E2
15
08
E9
EE
08
F6
FB
FA
04
10
09
ED
0D
EA
0D
0D
13
28
1A
FC
F6
12
FA
0C
04
09
07
12
FC
E9
06
FC
0A
11
F0
0B
17
FF
29
01
15
05
E8
27
06
F8
13
FF
ED
FB
0E
14
12
F5
30
F6
F8
F9
05
F9
FF
06
0E
04
15
11
E8
06
F0
F9
10
EC
0B
01
FE
FB
01
FA
05
01
FA
02
FC
FF
00
FC
0B
03
F7
1C
F9
09
F7
01
F2
07
13
F3
FB
F4
09
F6
0E
FF
07
0C
FA
2B
05
F9
FD
03
FD
08
00
F7
FF
07
03
F9
0A
07
FD
F3
17
F5
FD
04
F8
FD
03
FF
21
0A
01
FE
13
03
E4
0D
15
17
0F
12
07
2A
16
00
04
12
11
02
DF
13
02
0F
04
EB
01
0B
06
FC
2A
FB
F1
F9
EF
09
04
E7
07
F3
EF
15
05
05
07
F3
EE
0F
FC
1B
19
FD
F7
14
E7
F1
0B
03
0F
F9
01
11
1B
F1
02
05
FF
13
F6
02
05
F1
EF
0A
FA
0E
ED
E0
03
F3
FB
09
10
0F
21
07
15
10
02
02
FF
0D
FD
06
FD
EF
0A
F7
04
0B
0D
08
0B
F3
40
ED
D9
FB
06
0A
0A
07
2B
04
0F
FA
F5
10
1F
FC
EE
09
01
05
03
09
06
EF
EC
FA
0A
FF
03
F5
F9
F2
0A
03
00
00
06
F8
F7
FE
05
FB
04
02
FC
0D
FF
F5
F3
FE
0C
14
15
0D
03
01
FA
FE
0C
F5
FB
F7
03
DB
0D
07
FD
FF
F1
FD
FF
FB
FC
02
FF
FF
07
FA
F7
FC
0B
05
FE
F7
FA
FA
F6
14
00
FA
FC
0D
F3
19
0B
FB
F8
0C
51
EA
14
F5
FE
1A
0C
30
0E
F7
D1
10
1D
F9
20
E5
D8
0C
06
0E
09
FC
06
EC
21
FD
15
FB
07
FD
03
EA
0A
01
FD
FF
09
F8
12
16
EA
02
05
F6
FF
F7
04
FB
EE
FF
FE
F8
15
0B
02
06
F9
21
13
F8
0C
F4
03
0D
02
F9
10
FF
05
03
0A
FD
F6
37
EB
04
08
0E
0E
01
F5
06
FF
F5
FB
0B
08
08
0F
F3
FD
08
F5
04
06
FF
12
0F
13
E3
0F
F6
02
09
0C
F7
0D
FC
F7
EB
15
1F
03
03
0E
0E
D1
0F
FE
FE
0D
FE
02
0B
04
F9
FF
0F
E2
09
F5
01
00
00
F8
FA
FF
00
FC
01
FB
FA
FC
FF
00
03
0C
02
01
0A
09
FF
10
05
FE
09
02
00
F9
12
06
04
EF
03
07
E2
03
FA
FA
04
06
06
06
03
FA
02
FC
F9
00
06
11
07
03
06
10
12
05
F6
06
FF
04
FF
00
FB
06
0C
0C
EA
0A
E5
EE
DC
F8
17
FB
F7
25
0F
1A
07
09
EF
06
F5
E8
19
FE
FA
16
09
00
1B
EF
F9
01
04
DA
02
00
0E
08
06
0C
17
02
1A
F8
05
01
09
F4
05
0C
0A
FD
12
E4
0A
11
08
FE
FF
F6
07
07
FF
F2
0F
03
15
06
0E
FB
D8
0A
FF
F6
FA
0A
0A
0C
03
04
FD
E2
F8
01
02
05
01
0F
0C
0E
FE
0F
01
FD
F7
0D
F4
FF
03
02
02
F7
00
09
03
FB
01
00
F9
FC
03
06
05
08
F8
09
06
FF
FB
FB
06
F8
FD
06
03
F9
02
05
FF
06
FE
04
F9
00
05
F9
07
05
04
04
04
04
FD
FF
02
05
09
FE
FB
01
05
06
06
FB
03
F7
FD
FF
FA
06
F9
FC
08
FD
08
FB
FF
04
06
01
01
FD
FC
07
FE
06
FD
FA
07
F9
02
F9
03
FC
F8
FF
02
05
FE
01
07
03
FA
FA
05
02
FA
F9
01
F8
03
F8
FD
F9
FF
FF
03
FC
FB
03
03
FD
05
F9
06
03
FE
FD
09
FF
01
F7
F9
03
06
00
FB
FE
06
FB
FA
00
01
04
F9
07
09
FE
02
08
03
FC
FC
FF
05
06
00
03
FC
FD
FA
01
05
02
FB
F7
FB
00
00
00
06
02
FE
03
FF
F9
F8
04
FF
03
00
01
F8
FA
03
04
04
F9
FB
02
FF
FE
02
02
F7
FE
04
FE
F8
FB
FF
FB
03
F7
F7
FD
FF
FC
FA
F6
FA
01
FE
03
F6
01
FC
FC
04
F8
02
FD
F4
F5
02
04
FF
02
FE
FE
02
F7
F4
FD
02
FB
07
03
F9
FC
05
01
01
F9
FE
F8
01
FB
07
04
07
01
FD
FA
FB
01
FE
FF
F7
FC
FC
FD
F6
00
F8
FB
FD
02
FA
F7
F9
F6
F6
F6
00
03
F9
06
03
FB
06
05
03
04
03
FB
FF
FF
05
F9
FF
FE
02
01
F3
03
F8
02
01
01
F7
03
F7
FF
FE
F7
F9
FB
F9
FA
05
FE
F8
F5
F6
F5
01
F5
FF
F7
F3
FB
F5
F5
F6
FF
FB
F8
FA
FF
FE
02
03
03
00
FE
02
FA
FE
F6
03
F9
FC
FB
02
FB
04
FB
03
F9
F9
F5
F6
06
F8
F6
F9
FD
01
FB
FD
00
FA
F9
FF
07
F9
FB
F8
FF
FA
01
F4
F8
F4
F4
F6
FF
FC
FB
01
F7
F8
02
02
F5
FE
F4
F6
FA
FB
FE
F7
03
FB
FB
F5
02
FA
F3
F0
0C
FA
2F
08
0F
FD
DC
13
00
0F
15
E4
FC
15
F7
CC
F3
07
3A
F8
E4
17
FB
08
FA
03
F8
FE
0A
06
0C
07
F1
37
04
FF
01
FC
05
FE
FA
03
03
04
FD
02
FC
09
F8
F5
FA
EA
02
03
FF
1C
09
00
F6
FB
0B
03
0F
F8
EB
E8
EC
F8
01
05
03
03
F8
07
03
FB
05
04
03
FA
F5
02
10
05
11
05
00
02
F1
FF
16
EE
05
14
FE
18
FD
FA
FC
F4
0C
E5
1E
F7
E6
05
EC
E7
ED
F8
FF
FB
1C
02
40
19
CB
0E
DF
2E
06
05
FF
02
EB
E2
0F
FF
22
11
F2
0B
FB
09
FB
06
03
FC
04
11
F4
06
13
F8
0C
04
0E
01
EE
08
11
09
F2
07
F8
F6
EC
0F
F2
F7
20
0F
F0
14
FA
01
FA
FE
0A
FA
F0
F6
FA
EB
EA
FF
F9
E9
ED
FE
EF
08
07
01
05
F7
F8
0A
01
02
FF
0E
FF
04
0A
10
F1
EE
1F
0E
F9
EE
12
FE
FC
FB
03
2B
2E
FB
17
DF
0C
EB
F3
18
25
F6
0E
06
08
F2
01
FE
CB
06
0C
02
0E
06
F6
FA
00
FC
06
FD
08
00
FC
F9
FF
FB
08
08
0C
0F
F4
F8
EC
EB
EF
FF
0E
01
09
01
06
EA
18
07
F3
0A
0A
F6
0B
0A
EE
07
05
03
07
FC
06
FF
F9
01
F8
00
F6
03
04
F9
03
EE
FB
02
01
1E
F1
EF
00
CE
01
04
FB
F5
43
31
21
15
11
FE
09
03
08
01
E2
F9
08
E5
E7
21
35
E3
23
F2
08
F9
06
FC
12
00
06
1B
0F
FC
0E
F6
F8
07
FC
FB
F7
F0
FD
EE
20
F4
F2
FB
E0
FA
06
EE
E9
F7
FE
F6
F3
FA
0D
04
0E
01
22
21
FD
FD
F5
E2
FE
F6
FF
01
FD
07
24
11
0D
26
07
1E
03
0E
1C
F8
13
EE
FB
07
EC
0A
F2
EA
F4
0A
F9
10
01
F3
FF
05
FE
F7
01
F9
03
FF
F8
F9
FF
01
04
03
05
05
04
FA
F7
FC
06
FA
FB
01
FE
FC
00
FF
FF
04
04
F8
F9
F8
01
F7
03
FC
05
06
00
03
00
01
03
FB
04
FA
FF
FC
03
FB
02
F8
F8
FD
FC
00
FB
F7
FF
00
FA
FC
07
FB
FB
FF
FB
01
F7
F7
00
01
FF
02
FE
FA
FF
FE
05
FD
03
06
04
FE
FE
FE
F8
FF
FF
FE
FD
FE
04
FA
02
FA
FD
FD
04
F8
07
FD
01
05
FA
FE
FF
00
F7
05
02
FF
04
FA
FD
03
FB
07
02
FF
FE
F7
F7
F8
F9
F7
FA
F9
07
F7
FC
FC
01
08
FB
FF
04
FB
FC
01
FC
FA
00
F9
FE
FB
FF
00
05
FE
FE
FC
FF
02
FC
F7
07
05
02
03
FC
F8
04
03
F7
FD
F9
03
FE
00
FC
FF
00
FF
02
FC
FD
FD
05
FC
01
FB
FC
FD
06
00
01
F7
05
00
05
F8
FF
F8
F6
F9
FC
F5
00
F9
FE
F6
F5
00
F5
01
F2
03
01
05
F5
F7
F8
03
F9
FC
03
03
F6
F6
06
F8
01
F9
F2
F3
00
F9
FB
02
07
05
05
FA
02
03
FD
05
FE
FE
F8
06
06
F4
02
03
06
F7
F7
03
F3
FF
FF
05
F5
F4
F4
02
FB
FB
F3
FD
FB
FF
00
09
FE
04
02
02
03
01
06
05
04
FF
FB
05
08
07
01
04
F3
FA
FF
FC
FC
00
FA
FB
F2
F9
01
F9
F9
F2
00
FD
FC
FE
F9
EE
F9
01
FE
05
F7
FA
FF
F1
00
F7
01
F8
FD
FA
FE
F7
F6
FF
F1
F4
F8
FC
FD
FC
02
FC
09
05
FA
FA
F4
FC
F6
FE
F1
FA
FB
FB
02
FB
FF
FE
F7
FB
F8
F6
F6
07
FE
FC
02
F1
04
FC
FB
F8
F5
F4
01
00
F5
FD
FD
00
FD
FE
F3
F8
FF
F0
F7
FD
F8
FD
FB
03
F5
04
F9
FF
02
FC
F8
F9
FD
FF
03
06
FD
F3
16
03
F5
24
15
34
E6
FE
02
0A
E1
D8
F1
F6
17
E7
FC
EB
FE
EA
FF
03
05
F7
FC
06
0B
03
EC
07
F7
10
F9
18
05
FD
FE
02
08
06
04
FD
F9
FC
02
F9
05
04
01
04
02
14
F4
01
F6
05
F0
03
19
F8
F9
14
F1
01
02
FF
E2
03
05
1C
1C
FA
FB
FE
FE
02
FC
09
05
FA
01
00
08
FE
05
05
10
F6
02
FB
EF
F9
01
0F
22
18
07
07
10
04
F2
F6
09
30
F3
39
FC
03
F6
0E
16
F6
1B
14
0C
22
CF
1E
F1
F8
08
06
0D
03
F0
01
E0
0A
01
2A
05
18
0E
FD
FB
08
00
02
F8
EA
F9
0E
0E
1A
29
12
FA
20
FD
FD
0F
06
FD
00
F9
01
1C
F3
DA
FA
E5
26
01
07
F6
E1
E3
08
08
FF
E2
F3
08
D9
F4
EC
02
07
FA
12
0A
08
F7
04
11
0B
02
03
E9
00
06
F9
1C
18
FE
02
ED
0C
F7
12
13
F7
0B
07
FA
03
18
02
FE
FA
FE
F6
CB
0A
01
06
02
F0
01
12
FE
F8
FC
F5
21
0B
11
FF
01
1D
00
05
F9
06
02
06
08
07
FE
03
F9
F9
05
04
FC
08
00
F6
F6
01
06
03
FC
FF
EB
19
0C
FD
FB
F2
E8
F2
05
03
01
FE
F9
02
04
FC
F9
FD
FA
FC
00
FC
FD
03
FF
FB
05
10
E9
02
06
0E
12
07
0D
0F
F0
E8
EC
FF
E7
F1
33
3F
10
EB
F3
F9
FB
EB
F1
0B
0F
E4
0F
09
27
F6
15
17
04
04
0D
02
F0
FA
EF
F7
1F
19
1B
FF
FD
05
FB
09
19
F8
FC
00
F4
F9
14
06
07
F6
E8
F8
02
E9
09
0B
0B
0A
E9
09
FE
02
D9
13
00
13
01
F5
FE
F3
04
10
FD
06
F1
04
0A
20
08
D6
F9
FF
FC
F3
F7
06
EF
EF
07
07
01
07
F7
F5
05
1B
05
08
F7
EE
F7
EE
02
0B
11
2E
14
FA
00
12
FC
04
1A
E3
04
24
01
D4
EA
FC
20
EC
FA
FD
FE
1A
06
06
08
03
13
1C
18
04
E3
2B
FB
06
04
02
05
FA
FB
05
FE
04
FA
F9
07
02
F9
05
FA
EF
FC
EC
FD
17
F3
F7
E6
07
03
01
27
ED
F2
F8
01
F2
FE
07
F4
01
FE
FB
FA
FA
F9
03
FA
00
01
02
FE
F9
06
1A
FF
02
06
FE
17
F6
1A
0D
F5
15
FC
05
F4
E2
FA
1C
1D
17
ED
FC
EC
E4
00
09
23
F4
14
1E
4A
16
04
15
F7
19
02
04
07
01
07
F3
1A
08
26
FD
00
0A
F7
05
0D
02
05
F8
F5
09
FC
13
02
F2
F6
09
09
F5
F8
F6
19
01
EE
FA
EB
F3
D9
0C
F2
1D
13
0C
F9
08
FA
11
09
FC
0D
01
E6
05
02
E9
ED
FF
F5
EB
0D
01
E5
FC
0A
02
05
07
FE
02
FA
0F
01
0A
FD
FB
0C
FA
F2
17
DB
FE
0B
FD
1A
07
FB
FE
F5
00
03
05
ED
F7
F0
0F
0C
FF
00
FE
F7
03
F8
0F
F8
FC
2E
16
0F
ED
F7
E5
03
FB
08
00
FD
02
07
FF
07
F9
FF
03
02
EE
00
0A
01
11
FE
00
0F
F5
FD
FB
F1
04
F1
02
15
FB
FA
2B
1C
F2
08
FA
F0
FC
06
FC
05
01
06
07
FE
07
F9
FD
F7
04
02
0E
03
FC
F8
0B
19
07
13
FE
EE
F2
F2
10
F2
04
9E
2E
E9
F3
06
C5
06
E7
01
08
37
FF
EA
FD
04
E3
48
FB
0B
11
F4
F9
EF
02
03
F9
41
03
16
E2
14
F2
EC
08
0C
0A
EC
09
07
0C
FD
0D
0A
EB
E2
02
00
FF
0F
07
14
12
FD
F4
F7
00
DD
ED
03
16
05
FB
F7
F4
15
1D
1B
0B
06
F7
EF
FE
11
FC
0D
EC
F4
FF
02
F7
FA
FB
0E
0B
02
F8
01
04
F8
07
FC
0A
EE
ED
