FB
FA
2B
F6
09
FD
04
FE
12
F3
FA
FC
F8
F5
12
04
06
02
EA
0D
F5
03
F4
F7
02
0F
00
01
0E
00
15
00
FE
01
FE
F1
11
FC
FC
FB
05
F8
03
FB
05
07
00
FB
01
0B
03
FD
EC
E0
01
0D
F7
04
01
E8
09
01
01
1A
F2
18
F3
01
FE
0E
FA
EA
06
04
05
05
02
09
00
06
FE
F3
FE
07
01
00
04
00
F5
0A
0F
0F
1F
08
F2
01
03
FA
08
F8
06
F3
F1
F8
09
EC
FE
13
06
C9
FE
EE
0B
08
0C
03
0F
FE
16
0A
F7
F3
FE
02
01
04
FE
0E
FF
FC
FC
08
FC
F7
0D
05
0B
F2
0B
09
10
08
16
E0
02
FF
1C
0B
F5
02
EF
04
EF
10
DD
10
E4
FD
2A
FE
F1
0B
09
FD
E9
EC
0D
13
ED
10
F2
10
0C
FD
1D
0D
03
15
00
15
04
10
11
0A
FA
0C
F8
09
FC
11
12
08
E5
FB
00
04
FA
04
F9
F7
04
F8
03
FC
FE
F8
06
04
04
08
F9
02
00
02
FE
FF
F9
00
03
FF
F9
FF
F7
02
05
02
00
06
FE
06
F7
FB
03
FC
FA
FF
FC
04
FB
FC
06
05
07
FE
FB
F7
07
FA
06
F9
F9
FE
FF
FD
06
FB
04
07
FF
01
FA
03
03
FD
02
F9
FC
00
02
FB
06
00
FD
03
F9
FD
07
FF
03
FA
F9
01
04
F8
F7
FE
FF
FD
03
F9
F9
04
00
FD
FA
05
00
00
07
04
FC
01
FC
F9
00
04
FE
F9
05
00
05
FC
03
FC
FE
FD
04
FA
FD
FE
00
FE
FE
FC
FA
F8
02
F9
FB
F8
FE
00
06
00
F9
FF
FD
01
FD
FF
F7
05
FB
FC
05
FB
01
01
FC
F8
FE
F9
F7
02
00
FB
F8
FE
02
FB
FD
F7
05
F7
08
05
F8
04
05
00
FB
03
04
02
FC
05
FD
00
F7
F8
05
04
00
01
FF
01
05
06
FE
00
FD
FB
FF
FA
F6
FC
FB
F5
02
F9
00
F5
00
04
FE
05
F8
03
F5
04
FC
09
FC
FF
F9
F5
F8
F9
FE
03
00
F9
03
FA
F7
FB
FB
F9
F5
00
01
FB
FA
FC
FD
F9
07
06
00
03
06
FA
FD
FB
FC
FB
F7
F5
0C
FD
FC
F7
03
03
FC
FB
F5
01
02
F6
F7
00
FD
FD
00
02
03
FD
01
F8
06
06
FA
FE
FF
FA
05
04
F9
FF
FA
06
03
FA
F9
FE
FA
04
02
FD
04
F8
FA
03
FD
F8
FA
03
01
02
FA
F6
FD
FB
F5
F7
F5
F6
00
04
02
FD
F8
02
F8
00
F9
02
FB
F9
FD
00
00
FA
FB
FD
FA
04
FF
F6
0C
FA
01
00
F5
F7
03
F5
02
F5
09
FE
FE
04
04
FC
05
03
0A
01
FA
0C
F6
00
00
FB
FA
F7
FE
02
FF
06
FC
F5
02
FF
F7
F9
F8
FA
03
F7
F6
02
F8
04
F9
01
F9
03
F9
FC
F8
02
F9
00
FC
FD
F1
F8
04
FF
F1
F3
06
FD
F5
FE
F2
F3
08
FE
04
01
FC
F0
F9
F8
06
FC
FD
FF
F8
F9
FC
F6
FF
02
F1
FA
F4
F7
FE
04
FB
FC
00
FD
06
FA
F8
02
FD
FC
04
FE
FA
01
FC
F4
FF
FA
FA
F6
00
FC
FC
F7
FD
F2
F9
F8
FF
F7
FB
F8
F7
FA
FD
04
F9
FC
01
01
FF
05
00
FA
FB
F8
08
00
FE
FB
FB
FA
F1
05
03
FF
F7
F3
02
F5
FC
01
F9
FA
F2
FA
F5
00
F5
00
F8
FA
FB
FD
F9
F6
FF
FF
F3
FA
FB
F5
F4
F9
FF
FD
F4
F9
FA
05
FC
FD
F4
FC
FA
F7
FA
00
04
FC
F3
FD
FF
FE
FB
02
F1
05
F2
FD
03
FF
F0
F9
F5
FB
FD
F1
01
F6
FD
02
05
06
FC
FC
F2
F7
F4
FF
FA
FD
F8
F2
F9
04
00
FF
FF
FD
F6
F6
FD
F0
FB
F9
F3
F8
F9
FC
F8
02
FF
04
FD
FA
FE
FF
05
FB
07
06
CA
0D
D4
01
F8
0A
F4
EE
E3
07
0D
1C
F9
1D
16
0A
F7
01
09
0F
F5
00
16
EB
10
CA
FC
FD
FA
17
07
F4
0C
CC
F8
FA
04
07
05
FF
06
FB
01
02
FB
FF
FC
F7
04
34
08
09
04
0D
FE
E9
0C
FD
02
05
E7
E8
26
FA
16
04
15
FD
F6
DA
E8
16
00
F9
05
FD
04
07
02
0A
04
FF
09
FF
EC
06
E4
04
1B
0C
F4
09
E0
FE
EF
0B
02
F7
E4
0E
E4
09
E1
00
FE
02
05
08
08
00
F9
01
B9
10
FB
19
F5
FA
DE
02
0A
EA
11
ED
02
04
00
0B
04
01
00
DF
E8
EC
12
04
08
17
07
FA
0A
E3
FF
F9
EF
F8
F7
FC
0A
03
1A
F7
F8
FE
09
00
05
04
1C
01
D6
08
19
02
1D
FD
0A
03
0F
0A
27
EF
0D
F8
0F
12
FA
F9
FF
01
F9
FB
E6
02
FC
0D
10
06
06
0B
F4
FC
F0
E5
0C
06
D7
24
E0
0A
03
0F
F3
FD
09
02
E0
0C
05
F5
14
42
19
03
11
F0
11
F2
0E
00
02
02
EF
0B
39
0C
05
DF
F9
E6
05
07
06
FE
06
07
FD
FD
05
FE
FC
02
07
F9
FA
FC
0F
0F
EF
08
FE
FD
FD
0F
02
13
03
04
1B
04
2A
F1
08
03
01
F8
00
09
F9
04
03
07
F8
07
03
F2
02
0A
0C
F9
F8
00
0C
FB
0A
0C
09
FE
F7
FA
EA
F9
09
08
15
0F
B8
11
02
03
07
02
04
CE
10
FB
E9
34
BC
39
0A
18
01
06
FD
02
0F
02
FC
00
DB
0C
44
13
06
F3
F9
FC
02
F9
0C
02
EA
03
21
0A
0A
F8
F1
F4
FF
F7
F2
DF
FB
1B
F5
E7
F9
00
00
0B
33
F2
02
F7
F5
18
1D
05
FB
16
F4
F8
FC
11
DC
06
00
F7
FE
F4
0D
19
0C
07
07
F1
F4
0C
F4
01
FF
1B
0A
FF
03
F2
FD
FF
05
FC
FB
FA
F7
02
FD
F2
F6
F5
FF
05
F8
02
FC
FF
FF
03
03
FE
08
FF
F7
F6
F8
F9
FE
FD
00
FB
02
02
F9
FE
01
F8
01
00
06
F9
FF
03
FF
F9
F9
FB
FC
F8
07
FE
06
F6
00
07
05
FE
F6
04
FD
FC
02
FA
00
02
F6
04
FF
F8
F6
F9
FC
06
FF
0B
02
FB
F9
03
07
F9
04
01
01
00
05
05
02
08
F9
FE
F9
F9
FA
F7
FE
FB
FA
00
F8
04
FD
FA
F5
FF
F9
01
FA
02
06
FB
03
07
03
FD
F9
04
07
00
F2
F8
03
FD
FF
FF
FB
01
FF
00
F8
FC
00
FB
FC
F8
04
F7
01
F9
0B
04
05
FF
F4
FC
FC
FA
02
F3
01
FB
06
FD
FF
01
F6
01
06
02
F3
01
F2
03
02
05
05
04
FF
FC
FC
FA
F9
02
F7
FD
02
F8
FF
FC
F6
FE
05
F7
F4
02
03
FB
FA
04
FA
05
05
FF
03
FE
F8
03
FB
FD
01
FC
05
00
01
F8
01
FB
02
FF
03
FC
FC
05
FC
FD
00
07
F9
FB
FA
FE
00
FD
FA
06
01
03
FC
F7
FE
FC
FB
01
03
FB
FF
FC
02
FF
03
05
FB
FB
FE
05
03
FC
04
F8
FE
FF
F8
05
06
FA
01
02
F9
FD
F8
F9
F8
F7
01
06
FD
04
04
02
06
07
FD
02
05
07
03
06
00
05
03
03
01
06
06
FE
FD
FE
FC
00
FF
01
FE
01
06
00
FE
02
FE
F9
FE
04
FB
FA
F8
00
03
FC
02
FC
05
03
00
01
04
00
FF
F8
05
FB
00
01
05
FA
FE
FB
FD
FD
05
FD
04
06
07
F9
08
F8
FD
FE
FE
F8
FA
05
01
01
FB
FA
FA
F7
FD
F7
FD
F8
F7
01
01
03
FA
07
FB
04
FB
03
FD
FE
01
01
00
01
FC
01
03
F7
F8
F7
FF
F9
F7
FF
F8
02
06
FB
02
03
F8
F8
01
FA
FE
02
01
04
F8
FF
F9
F4
03
02
F9
00
03
00
F5
03
F5
F5
05
FE
00
00
FB
FB
02
FD
F9
02
FC
FA
02
F7
FA
F9
F7
FA
02
FC
FB
FF
F9
F6
03
FE
FF
07
06
00
08
02
05
FC
02
FA
00
02
FE
01
FA
F4
07
F5
FB
08
F7
07
00
F6
FB
FB
FF
F6
02
F3
F8
F7
FD
01
F8
00
FA
FE
00
F9
F9
02
00
07
03
04
08
FD
F6
F9
FF
04
F8
05
F8
F9
FE
FE
07
02
03
F4
F6
FB
FA
01
F9
00
FB
FF
F9
00
F5
02
FB
F9
01
00
F7
F4
00
FF
FF
F7
FD
F4
F8
F7
03
F6
FC
FE
F8
FA
F3
03
FC
05
FF
F4
FF
F6
03
FE
F9
04
FA
FA
FD
FA
04
FF
FF
FF
07
F4
FF
05
FC
FE
02
FF
F9
F4
FD
F8
04
F9
FA
00
07
F9
F9
FA
F6
FA
00
F6
FB
F6
FE
F8
00
03
F8
F6
00
03
FB
FE
FE
FF
F3
F6
FA
00
FA
FF
0F
14
E9
20
E1
05
F6
E1
06
F8
06
05
EE
27
F5
33
07
F6
15
11
03
F6
16
07
F8
01
07
12
FA
0D
15
08
FB
F4
14
DF
ED
07
F9
FC
00
05
06
FD
FE
03
00
FA
03
03
FF
FE
02
19
EC
08
FD
FE
10
F3
03
11
08
05
07
F9
0D
01
02
0B
01
00
01
02
03
FD
F9
00
03
FA
02
04
07
01
03
FA
07
0A
0A
05
02
0A
04
17
11
FA
DC
E8
0E
0A
07
0B
DE
0B
E1
F4
19
AE
1A
E1
18
02
09
0C
E6
10
DB
11
10
B3
19
12
14
0B
0D
14
F9
FC
1C
E8
09
DF
0E
FA
F2
07
01
FF
03
FC
0D
F8
08
F9
00
EF
F0
02
01
F6
10
12
F2
03
E7
01
25
F8
D7
FA
3B
F7
1D
15
F3
11
09
FE
FA
10
08
FF
1D
07
01
04
01
0E
F4
19
02
F0
0B
FD
03
09
01
09
04
0A
FA
00
08
FA
F6
00
F6
F4
FA
02
F2
FA
F8
05
F5
FF
F5
FC
FA
FE
F5
F5
FD
FC
03
F4
F7
00
ED
08
03
F8
00
F3
F7
F0
F2
03
FF
F5
F8
06
F8
05
F9
FA
07
08
F8
03
01
FF
03
FE
FD
00
FF
F1
06
00
F9
F1
FA
F8
F8
FB
05
FE
F7
05
FD
FD
F3
01
FC
F4
FA
FE
FE
FF
03
FA
FC
05
05
FB
FA
F8
F9
FC
FB
01
F1
07
FC
FD
02
F9
F5
F9
FD
F6
F7
FC
F6
FD
FD
F2
01
F9
FE
FF
F1
01
FA
FF
02
FD
04
F7
F7
FE
01
01
FB
FE
F3
FE
00
F2
03
FB
F7
F7
F0
F6
FC
03
05
FA
FF
F0
0D
F9
02
02
FF
00
FE
F6
F3
FC
07
F9
FF
F8
F9
FB
F8
F8
F1
FD
FD
EF
01
FB
FF
FA
FC
F6
F5
F5
F3
F3
FE
FE
00
FD
F2
01
07
F8
FD
FC
F3
0B
FA
F4
FE
F1
06
05
F3
02
F7
02
F5
06
FF
F3
03
06
FF
FD
F1
24
0C
18
03
04
FD
F5
F0
05
FA
11
15
EA
15
23
18
EA
FC
F7
EE
00
EC
FD
0A
04
23
0A
FD
05
00
10
04
DC
FA
FF
02
07
FA
00
05
FF
04
03
03
FF
FA
FF
02
03
FC
0C
07
03
F9
05
05
04
0A
FE
1B
09
15
02
27
F9
FE
EB
01
F3
FB
F9
03
07
05
FC
FF
FC
FD
02
FB
04
F4
03
FB
02
02
14
FE
FA
04
13
02
FF
F4
04
02
F8
05
15
F0
F5
F5
17
FD
B8
01
D4
FC
06
F8
1F
F4
18
FF
15
0B
EE
FD
12
F3
00
01
F1
13
FB
10
FA
F2
F9
12
F7
FC
06
11
F6
15
EF
03
00
05
00
09
FA
0F
03
F4
05
FF
10
FB
13
F3
F8
01
F6
F6
FA
F6
07
F3
0E
05
10
FF
02
F8
F3
F8
07
FF
FB
F3
DF
F9
0E
03
1C
04
01
04
00
04
09
F7
05
F5
08
F4
FA
F9
01
F9
0B
02
05
EB
EB
FD
05
00
EF
04
1F
18
01
19
0A
EF
F8
DD
E6
FC
FC
01
FC
0D
0C
0B
FC
04
05
EC
07
FF
03
EB
03
0C
24
08
04
F9
06
00
00
FA
01
06
FE
07
00
06
FA
08
F0
FD
FA
02
F6
07
02
09
19
FE
0F
EE
F9
CE
03
E1
14
10
04
03
0A
08
04
07
05
F9
FC
FF
08
FE
F9
02
F5
09
02
15
F7
05
FA
F0
FA
02
F6
13
0A
F6
FD
00
0A
FA
F6
55
0A
2D
DE
00
1E
0A
5E
05
09
FF
CE
0D
E3
F6
F7
DF
FD
0E
F3
08
F7
01
15
01
06
EE
09
F9
FB
0C
1B
11
08
FD
0A
F7
FC
F5
06
08
17
FE
08
00
F7
21
F3
05
06
08
F7
13
00
09
0C
F6
05
24
F3
1D
EF
F6
F5
F9
F5
FD
0C
0C
FE
29
08
F9
18
F9
FB
06
07
01
00
F2
0C
0D
FF
0F
FC
0A
F7
04
0D
15
0E
03
0B
FF
08
24
F7
12
05
0B
F5
07
F8
05
FA
EA
D0
DB
27
ED
CA
21
F6
F8
07
18
06
03
02
0A
1F
FA
0E
14
F5
F4
01
08
FB
15
05
FC
F9
FF
01
F9
01
03
06
01
FE
07
F1
FC
F9
F7
12
FE
FD
01
FF
14
FE
0C
FF
E7
03
D1
FF
FF
FA
00
EE
0F
FA
0E
00
FF
06
FD
02
FA
00
04
06
08
F7
F3
08
01
F0
1D
11
FE
F6
0F
17
12
F3
F8
01
F9
09
1C
07
F2
FA
07
18
0B
DC
0A
E9
05
11
0E
F0
25
D9
FB
FA
08
E6
0A
0A
07
13
05
16
09
12
12
FB
F1
EC
26
FD
20
06
F2
08
11
08
F4
FF
05
F6
F8
06
0E
F9
FB
11
FC
1F
F4
EB
F3
ED
12
08
16
F5
F6
E9
29
22
CB
08
F3
FE
09
13
08
03
FA
01
E9
17
0B
D5
09
1F
FF
F3
08
08
09
06
17
07
0A
F4
F5
FE
03
F7
FD
13
02
F7
F2
18
CC
03
22
19
D3
04
01
07
1C
1B
F5
E7
12
24
17
F9
23
FD
F9
FA
11
FD
06
F3
07
04
0E
FA
08
FD
02
15
08
06
00
03
05
03
FD
FF
FD
04
F9
02
FD
11
16
04
07
F7
0D
10
06
14
EF
08
08
00
15
0A
32
FE
0F
21
FC
E3
F0
1B
07
05
03
03
02
FF
FF
0E
00
FE
F9
0D
0C
FC
FE
0B
04
FB
0C
FC
00
EB
F7
0D
05
1C
03
FF
0E
FF
CD
FE
03
23
EA
43
FD
E1
08
F9
F6
FF
EA
1C
17
08
12
2F
E8
15
0F
0A
02
F1
E4
FA
19
0D
0D
18
F6
13
FB
FB
16
0E
F3
FF
FE
F6
F2
FF
0A
04
02
0C
06
F1
FA
09
08
12
1D
05
F8
14
38
12
FC
10
E0
10
1B
15
0E
14
0D
FA
FF
11
FF
FA
22
17
08
ED
00
EF
07
0D
F7
14
03
08
F5
05
F4
07
F9
FE
FC
F8
03
06
04
02
0E
05
DE
02
F9
15
11
EE
01
08
14
13
FF
52
06
CF
08
EC
F5
F2
02
FF
F5
F4
06
E6
17
FD
EE
EF
09
16
12
01
FF
F9
06
08
07
02
04
FE
02
FB
07
F9
07
15
19
19
FC
FD
14
0B
F0
F9
F4
FB
01
03
ED
F8
35
F6
E9
17
00
E6
FE
E7
09
0D
FE
05
F8
03
FD
FC
FA
FF
09
02
03
05
F7
13
EA
01
1A
F7
FF
F9
F6
FF
16
02
FC
17
FC
06
FA
05
D3
2C
0C
1B
03
E7
0D
FF
25
DB
2B
F6
ED
14
32
0E
10
F1
03
FA
07
F9
1B
E5
DD
F6
FA
14
0C
09
F3
FF
0A
FA
14
17
EB
EA
F3
F3
11
18
05
05
19
18
15
CD
02
1A
FB
02
ED
F1
2E
18
16
21
DD
FC
EC
03
12
FD
06
FC
03
FC
22
03
3D
F1
22
1C
F8
08
FD
FF
18
FB
F8
09
F8
09
07
FD
F0
F5
FF
08
11
01
FD
07
F3
EF
20
06
DF
E6
FD
10
00
0D
0A
09
14
E3
FF
20
DB
F6
F7
0E
18
0C
1E
F7
07
F9
FA
F4
F5
FF
F9
11
0F
11
FC
F9
06
07
FB
FD
02
01
FF
FF
FF
06
FF
03
06
05
01
02
00
F6
F7
06
0E
1B
00
0A
F6
FC
F5
F7
02
F4
10
17
0E
0D
F9
08
F9
07
FA
FE
F9
0D
02
FF
FE
01
FC
01
19
F6
07
FE
E4
EE
E6
EF
09
18
08
07
10
FF
F3
03
1E
FE
25
FE
FE
33
09
49
08
18
F8
F0
04
00
13
04
D0
F4
14
09
13
F8
04
02
F7
F3
E6
00
12
FD
18
02
17
09
F9
11
01
F2
FC
00
FB
0C
0B
F1
F6
0E
0A
07
FA
FC
FB
F9
0E
F5
05
1A
C8
03
FA
01
F9
EE
2B
E2
EE
E4
01
12
21
05
17
0A
F0
22
E7
DF
05
F0
04
0D
FD
0E
11
07
0F
FD
03
F1
04
F8
0E
0F
03
02
09
11
C3
05
D6
FA
F9
FA
F3
17
FF
FF
20
3B
FD
D2
0D
27
FD
FD
FD
FE
F7
FB
06
F7
FE
03
D1
0B
09
12
09
EF
03
F2
01
01
FA
FA
03
FB
F9
F9
FF
04
FC
01
08
0E
0F
E5
FE
FB
F1
FE
09
FD
0C
04
F4
17
13
FC
11
0E
FA
15
FE
03
F3
FB
FE
08
05
FA
FB
02
FB
01
F9
03
FF
FF
0D
FB
1A
09
0A
FA
F2
0F
0E
09
01
09
F4
E6
10
0D
0D
0E
08
11
36
CF
F2
FA
0D
08
08
FD
F4
06
AA
27
EF
0D
DB
04
F6
0E
07
0B
03
00
D1
FE
12
19
01
F7
F0
01
FC
17
0D
10
F8
ED
0A
0B
0F
02
02
FA
E7
11
0F
DD
EF
20
F7
FD
13
FB
0D
FF
14
05
0E
F4
09
E4
0D
F4
F5
05
01
EE
F7
FB
3C
08
0F
23
F3
14
04
0D
06
05
00
F5
12
05
00
FC
F3
09
0F
17
08
03
FA
EF
F9
FA
E2
F2
0B
17
E0
FE
F9
F5
12
0A
FC
F2
07
4B
10
DB
02
F4
03
03
06
06
F2
02
0F
F3
0B
F4
CA
E0
FB
09
1E
08
11
06
F9
FF
03
F8
F9
F8
00
FD
07
FE
FA
02
0C
26
FE
FB
F9
FE
F8
F8
0E
07
00
FA
F2
E0
FB
05
EC
EC
0A
0A
00
02
05
17
04
F9
02
00
06
FF
FB
03
F8
08
F9
01
ED
FE
F8
13
F9
0F
F3
03
02
06
F8
12
EF
0D
EF
02
16
F3
E2
09
0F
03
05
1D
0B
F7
2D
F9
E5
ED
EC
1D
EC
F4
11
FC
05
05
13
FA
1F
FE
DA
F5
02
F8
08
D2
06
E1
E7
0B
10
09
F5
01
0F
19
06
06
00
EA
0B
04
15
F1
DD
F4
FC
0C
FB
01
01
07
0C
09
0B
F6
F5
0B
F2
FB
FA
13
15
02
02
F5
18
E1
08
3C
0A
07
02
FC
FB
0C
F5
F6
0A
0D
01
F1
03
FF
02
FD
FC
04
0E
08
13
0D
16
0F
E7
0F
02
FD
02
FA
ED
DA
04
FE
0B
10
18
01
05
02
16
00
1C
0D
02
FF
01
F9
0E
F4
F2
09
FD
EC
13
FC
FB
03
FE
FA
FE
07
02
03
FD
FB
FD
F3
EA
03
FE
14
02
09
F6
FB
F5
1A
0C
05
F8
01
FC
FC
06
E3
0D
08
05
EF
13
07
00
05
08
00
00
09
FA
FA
01
F2
0B
F5
EF
F6
03
14
0F
FE
01
EA
03
09
14
FF
FF
FC
09
0D
14
02
14
20
21
36
04
0B
05
02
13
1C
12
11
FF
01
DA
16
03
EE
12
F1
FE
0D
09
07
19
FC
FC
09
00
F7
13
F2
F7
0A
0A
11
02
07
EF
FD
FC
03
1A
0E
F2
10
03
FC
FC
FB
09
01
EB
01
3A
F5
ED
03
EA
0E
1C
01
FD
FD
FE
FE
01
12
C7
0E
F9
E1
0A
EC
08
15
07
17
0B
00
00
00
03
06
18
0A
0A
FD
FF
FB
05
0C
0E
0A
DD
0A
1B
18
E9
00
F9
03
FD
0E
F7
29
30
B6
16
2F
ED
06
0F
03
ED
FF
F7
0A
04
F7
EF
0E
07
0C
FF
FC
F4
F9
00
01
04
FB
F9
03
01
00
FF
07
03
03
03
05
F9
FC
FF
03
EE
FD
06
06
06
0C
FC
0F
17
04
0A
02
0F
F5
09
1D
FA
08
F5
02
FE
06
FB
06
FA
0A
FC
FF
FE
FB
01
F4
10
EE
02
10
FC
0A
F1
F9
02
18
FE
FF
0D
F7
F7
FC
3A
FD
19
E0
16
06
06
3D
0D
E5
F7
32
EC
2C
F8
0D
CB
FE
FB
01
06
EB
0A
FB
F9
17
F9
08
FB
04
FA
00
00
10
0A
FC
01
FA
08
03
FC
0C
0C
FD
FE
17
F5
FC
F5
06
F6
0A
11
05
FF
07
D9
09
1C
0F
EC
F1
27
F4
F1
F8
F7
FB
02
FC
03
FE
E0
03
EC
17
03
FB
08
13
F6
00
0D
FD
02
FE
07
08
09
01
06
14
FD
FA
FB
06
11
F2
1E
09
14
F1
11
FD
EB
06
05
FC
1E
0C
11
F1
F0
10
10
F8
AE
0A
D7
0E
F5
0C
1C
0D
E0
FF
1F
0A
E7
1A
02
07
08
FE
04
01
FA
FD
05
FB
FD
FF
FF
0C
FA
02
FD
00
01
02
0F
FD
09
DE
0F
F8
0A
04
E9
0D
DF
1D
FB
0C
08
07
0E
06
F8
FD
02
F9
02
FA
F9
FB
FB
F8
0A
FB
FD
05
FF
1B
19
00
08
04
ED
13
22
08
05
FF
FF
04
3A
F9
D5
E8
FA
DE
03
01
09
FF
0A
0D
2F
E8
F0
FE
09
E4
E4
0D
F0
08
05
0A
07
0C
F2
00
0D
0E
E5
06
F3
09
F9
0A
14
05
01
10
01
07
12
10
09
F9
FE
15
11
EE
F9
0A
12
12
0B
EA
ED
05
F0
17
0D
F8
E7
09
FA
FB
F7
DC
0E
EB
00
08
EC
E8
05
45
12
EF
01
11
14
FE
FF
05
08
17
0D
F5
12
06
05
14
08
FC
00
02
F9
F8
FE
04
01
04
00
01
FF
F8
FB
01
08
FF
02
F7
01
F8
FB
00
FC
FE
FE
02
FE
01
03
FD
FE
08
F7
FF
F8
FD
00
04
06
06
FA
06
02
F9
01
06
FA
FE
07
F9
FB
FC
05
01
03
FB
FD
05
00
05
03
FB
FD
FD
00
F9
FB
FA
01
00
03
F8
09
FB
F9
FE
FB
01
05
03
01
FC
FD
04
F9
FE
FF
FE
05
F8
02
FB
FA
FC
02
FD
06
F7
06
00
FE
FA
07
FC
FB
FC
FF
FB
FB
05
02
FC
F7
06
FF
FB
F8
04
02
01
09
00
02
07
F9
F9
FA
FF
08
FE
FB
F8
FB
01
06
F9
FE
05
04
01
06
03
FF
08
FB
07
FE
02
01
FE
04
FD
FC
FE
FB
08
FA
F7
08
04
FC
FF
FB
F7
FE
01
F9
FA
05
02
01
07
FD
F8
FC
01
02
F8
F8
00
03
01
F9
FB
FC
F8
FC
03
FD
05
02
F8
06
FB
FD
05
02
FB
F9
FB
F6
00
F9
FB
F7
F5
FE
F7
02
01
FB
F4
F5
FB
00
FE
F6
F7
02
F9
00
FD
FA
FD
F8
FB
FF
FA
F6
F4
FB
FF
00
FD
FA
04
07
06
02
FF
FE
FA
FB
FD
FE
F6
00
F8
FE
F4
00
FC
FC
F8
F9
FD
FE
F4
00
02
FF
FC
01
FD
F8
FA
F6
FC
FD
FB
01
FB
F9
FA
08
FF
03
08
F8
00
05
FF
03
FF
F9
FA
F8
F6
F5
F6
F6
F6
FF
F8
F6
03
FF
00
FB
00
F8
01
07
FE
F8
F8
F8
F9
FA
FD
01
FD
FF
F6
FA
00
FE
F6
F9
FC
FC
F9
F8
F5
00
FB
F9
FA
FA
04
F9
FC
06
03
F5
02
FC
FD
FB
F3
FD
05
FA
FC
F5
F6
02
F9
F9
FC
F4
F7
00
FD
FA
FE
03
F6
F7
F5
04
F8
FF
F6
03
02
F9
FE
FA
02
FA
F6
F5
F4
01
FB
F7
03
F7
FD
FD
FA
F4
FC
00
F7
01
F5
F4
F7
FF
FE
F6
F1
02
0F
16
F3
31
0A
D2
05
08
09
07
19
0C
CB
07
1E
F4
F1
22
FC
D8
1A
11
0B
F0
17
08
F3
FE
EE
14
FC
E9
21
02
07
00
04
05
02
07
01
FC
FA
FD
00
F9
06
FE
FB
05
07
05
F0
FE
12
0B
13
00
F3
13
05
03
F2
0B
1F
ED
04
FE
3B
01
03
FF
F9
05
F4
FE
FE
FE
09
FC
FA
02
0C
15
06
01
F8
F2
F3
E3
06
0A
0D
04
20
F9
F8
F3
F3
FB
F4
F2
01
F2
01
E9
0F
EF
0E
E3
18
00
00
12
EB
FB
05
C9
20
F6
0F
F6
F8
EF
02
0C
FC
08
15
F4
0C
EF
12
FB
01
06
E8
F2
FB
FB
15
09
FB
FB
FD
05
F8
FB
0B
1A
16
12
0B
14
1B
BD
02
02
02
E5
03
1A
1C
F4
09
07
E7
13
15
DC
FB
E6
F9
FF
E9
EF
E0
01
0A
F6
11
FD
FD
0A
01
F3
F7
FC
F8
08
09
01
00
04
09
EE
FC
0A
F0
D7
0C
1F
F8
0C
FE
0A
2D
10
F9
F2
0A
09
E5
E2
0C
17
FA
F0
F9
F5
E8
10
FA
F6
08
F7
12
1E
E2
F9
FB
06
05
FD
FE
F8
FD
07
07
F9
04
FA
09
11
1A
09
05
FC
FA
F2
F3
FA
F5
06
0C
06
ED
33
03
11
F3
FE
FE
F7
D5
FD
01
FF
08
04
01
FF
F8
04
04
FC
FA
F7
FF
F8
FA
FA
E1
08
00
E3
1A
07
0D
F4
EA
00
F9
F1
04
0D
0B
FF
25
2A
03
17
0C
09
05
0D
0C
0A
13
CF
02
17
09
34
F6
01
F0
F6
FC
0C
EA
07
FB
F2
FB
15
FA
01
FA
07
01
FB
F9
F8
E8
06
03
0D
00
F4
FE
0C
08
F2
CE
07
12
01
FB
E8
F2
14
00
1F
0A
E3
F5
09
DE
FF
F0
09
1F
08
F2
29
0C
2B
01
06
02
ED
1B
07
F9
00
E9
02
04
EE
F4
F7
F7
FC
03
02
0B
00
FB
FC
03
FF
03
FC
04
FD
02
04
05
03
02
01
FB
FE
02
F8
FA
05
01
FE
05
05
05
FC
F9
00
F7
F9
05
05
FB
FB
04
03
FD
F9
FA
FC
FF
FF
FE
FE
02
03
03
03
06
F8
F9
F7
FF
FF
05
00
F8
05
FB
00
FD
05
FB
FC
FA
00
FC
FE
FB
F8
01
FA
03
F9
FF
FA
06
07
FC
FC
01
06
03
07
FB
FF
FD
FB
04
FE
05
02
04
04
F7
F8
FD
05
FB
05
04
05
FA
05
00
FC
FA
09
00
03
05
FD
06
FE
FA
FC
08
FB
05
03
FB
FA
FA
06
FB
F7
00
FE
F7
04
03
FB
FE
FD
F8
01
05
01
01
01
04
FB
03
FD
03
05
03
FE
01
FD
FC
05
06
05
06
00
00
FA
05
F7
FD
04
FC
07
04
FD
FB
00
FF
FE
00
FE
FA
FE
FF
FA
FF
FE
F7
04
F9
04
00
05
F9
F9
03
FC
FA
FA
FF
06
00
06
04
F9
FA
FB
F2
F2
FD
FD
00
FA
F4
FB
FC
01
FF
06
F4
03
F9
F5
F5
FF
F7
FB
F3
01
FC
06
F2
05
F8
00
F6
FB
FB
F4
FA
FE
05
F9
FA
05
06
FD
FC
01
FC
01
04
FC
FD
F8
FE
02
02
F3
F7
05
F6
F0
08
F8
04
05
F5
FD
FB
FA
FB
F8
F3
FD
00
FC
FE
F4
FB
FC
04
00
05
FC
01
07
07
FA
07
07
06
F6
F6
F7
FD
F0
F9
F7
F6
0C
FE
FF
FA
F2
F1
FF
F5
F0
F2
F4
FB
04
01
F7
FC
FE
F7
FD
FA
07
F4
04
FD
F8
FA
F2
FC
F7
F2
01
F5
F7
FD
F7
FC
F1
FE
00
02
04
F6
FA
F7
FC
F5
FD
FF
FA
05
FF
FF
06
F9
FB
F4
FB
FD
FA
FD
F9
F7
F6
00
F8
FA
FC
03
F6
02
00
F5
F3
F6
00
06
FF
07
FA
F9
F9
05
FE
F7
FA
00
F9
F1
F9
F7
FD
03
F3
03
F8
F4
F8
F5
00
FC
FB
F7
F6
01
1D
FB
15
0D
22
17
DD
FC
FD
01
0D
D9
E4
F2
FC
E9
17
F1
0C
F2
F9
0E
1E
FB
04
08
09
FB
14
EC
F7
0D
F8
2D
20
FC
FF
FF
FB
FF
01
F8
F7
03
F9
FE
F8
F7
F2
03
F9
13
15
08
F8
F9
EE
1E
07
05
E8
F8
E8
F7
F0
14
F8
F1
02
05
27
02
08
01
F9
FA
06
0A
03
0C
FD
F2
FE
08
F7
F2
1B
08
0E
E4
00
E3
F5
0C
24
25
EC
01
15
F9
05
F0
FE
2F
09
5C
F3
FC
F3
12
0A
F0
29
DA
1E
F4
F3
1F
E9
03
FF
04
05
17
10
03
02
FA
F4
17
00
0E
1D
FE
F5
09
0C
14
DF
FD
EE
FF
00
0B
10
EC
04
1D
FA
FA
0B
F0
16
FF
FF
0B
45
0B
E4
F1
EE
1F
03
0C
FF
FE
09
F6
0B
0D
DF
08
F5
F8
0C
D8
06
F8
0A
09
10
05
FE
FE
16
02
12
FA
FE
F8
04
F5
12
0D
FB
FD
05
F9
FE
F7
1D
04
13
05
FF
FF
1B
12
F1
00
DC
EE
F7
07
04
12
FA
03
F0
F6
06
0E
0D
F2
FE
06
01
07
F3
0E
F0
01
FC
05
05
FD
FF
07
FD
FE
07
FF
04
0F
11
07
F8
EB
06
F0
0E
0D
05
F9
EA
F9
00
F6
F3
F8
09
1B
10
F4
F7
11
E8
F8
FE
FD
FB
FE
04
F4
04
0C
FF
0B
F5
04
08
0A
FC
E9
E5
0E
F5
11
13
FC
FB
01
00
FB
E1
F4
17
15
07
EB
F8
DD
FF
1D
F2
1B
0C
E2
19
F0
FA
F8
24
04
05
0A
F3
03
01
FC
2B
07
EF
FC
F3
06
FD
02
D0
FF
01
07
F6
F7
FF
FA
05
10
04
F6
EB
09
0F
FB
F3
05
17
1F
03
F8
03
FC
B6
07
19
04
0C
E5
EA
09
0B
06
0C
0E
04
F4
26
01
0C
0A
F6
EC
F1
FE
FA
F8
F2
FE
02
01
FD
F1
F4
F9
08
08
07
08
03
F3
F9
EE
15
0E
10
07
1A
0B
03
0D
F6
09
06
F7
12
F6
07
10
F9
FA
0F
08
02
12
05
0D
03
01
12
F1
03
FB
1A
FE
EF
15
F8
05
06
03
02
FB
FD
FE
FD
FB
03
FF
FA
FC
F6
18
0C
09
04
EF
02
02
09
0D
F8
F5
0E
17
15
EA
18
13
01
FD
FE
18
F8
F5
FB
01
03
00
FA
FD
F8
FD
FA
0D
FB
FA
09
0F
F5
FF
E8
F8
EE
0F
0B
01
FB
22
05
FA
EB
05
F5
06
E6
24
ED
F0
ED
0C
F3
15
EC
0E
0E
0E
19
F2
18
0F
00
1B
E6
05
FE
FA
11
01
02
ED
15
02
FA
0D
EF
08
04
FE
00
F2
F2
F2
00
0C
01
01
F9
0C
06
10
07
06
34
19
0C
00
0B
03
AB
03
09
0A
F8
0C
1D
1A
01
05
12
F0
11
02
E7
FC
E8
00
FC
E5
FF
DD
FA
02
F3
09
00
FB
FC
01
F5
F5
F7
00
05
06
F8
00
FD
01
12
0D
F2
FC
F6
FE
30
13
03
0C
E1
F0
F7
60
02
07
E6
20
E6
16
20
00
FB
10
08
0B
E3
FC
17
0B
28
F3
0D
F4
EF
00
02
04
00
00
00
05
FA
03
FA
03
05
FE
04
05
0F
E6
02
FC
16
01
0D
EB
EC
F6
F8
17
FD
F8
0C
FF
11
1D
05
FE
F7
F7
01
FD
FD
0A
02
01
05
FF
08
0E
FA
01
FA
12
FC
F2
FA
1E
12
22
0D
FA
EB
ED
06
08
F3
11
C7
1D
F3
F7
09
D6
FE
ED
FF
07
F7
F3
F2
12
1B
EC
29
F9
26
0E
F9
0A
03
03
F8
02
18
FA
31
E4
0D
F9
F0
03
05
02
EC
FC
19
0C
10
FB
F8
F6
E5
06
03
FB
1C
13
1B
FC
E6
FE
12
FA
C0
E9
11
EF
39
11
F2
0E
0A
0A
14
17
13
FC
03
02
0E
1A
12
E3
FF
F5
06
01
F8
FD
FE
06
10
F9
F7
12
00
13
F8
FD
F4
ED
